. 56456
a 49354
in 26940
ein 18883
einem 13716
, 12901
the 10974
eine 9933
und 8946
mit 8844
auf 8768
on 8175
man 7882
mann 7832
is 7567
and 7395
of 6877
einer 6776
with 6180
an 6038
der 5148
frau 4193
woman 3976
die 3957
two 3877
zwei 3873
are 3734
einen 3488
to 3142
im 3130
people 3121
at 2987
wearing 2623
von 2363
young 2280
sich 2274
white 2223
shirt 2222
dem 2163
mädchen 2127
junge 2074
black 2004
his 1969
while 1947
vor 1944
zu 1913
blue 1875
men 1816
steht 1785
sitting 1743
red 1741
den 1739
girl 1730
boy 1692
dog 1684
männer 1667
sitzt 1625
hund 1618
standing 1614
playing 1584
group 1552
person 1513
straße 1449
street 1449
während 1397
down 1394
walking 1378
gruppe 1371
her 1325
hält 1322
spielt 1310
front 1287
das 1267
hemd 1240
holding 1237
ball 1232
hat 1199
personen 1155
über 1131
one 1119
drei 1078
by 1062
water 1061
eines 1055
three 1055
blauen 1038
ist 997
frauen 994
roten 989
women 987
kind 986
weißen 984
neben 966
aus 946
stehen 945
up 942
spielen 939
am 932
sitzen 928
green 928
menschen 925
little 915
for 911
as 910
durch 898
looking 895
child 894
geht 888
bei 886
outside 871
fährt 855
trägt 852
hand 849
large 841
wasser 838
um 813
through 813
kinder 793
yellow 781
kleines 772
children 770
brown 766
macht 747
springt 743
from 729
their 725
schwarzen 713
into 711
kleiner 702
entlang 699
small 671
park 667
next 664
leute 660
other 660
out 642
dressed 642
gehen 638
some 626
-@@ 623
over 611
building 603
etwas 584
riding 584
running 581
mehrere 580
orange 579
oberteil 578
seinem 578
er 577
großen 574
near 571
jacket 566
t-shirt 565
around 562
another 562
baby 546
grünen 544
stand 544
jungen 542
kleidung 538
field 538
es 534
sidewalk 534
beach 521
crowd 521
jeans 509
jacke 508
läuft 506
pink 506
stands 502
be@@ 499
shorts 493
jumping 493
sits 493
table 491
sind 490
fahrrad 490
behind 489
ge@@ 488
für 485
hintergrund 481
freien 478
schaut 473
grass 470
strand 469
bike 468
luft 467
anderen 461
background 460
snow 459
city 458
junger 456
tisch 455
&apos;s 444
hut 443
girls 442
air 441
top 439
gelben 437
hinter 433
gebäude 432
sie 431
player 431
nach 426
looks 423
asian 421
wall 420
band 419
andere 412
dogs 406
dress 405
several 404
that 404
kleine 403
older 403
four 400
vier 397
off 397
camera 393
nähe 391
wird 387
beim 384
boden 383
schwarzer 382
talking 382
essen 380
lady 380
something 380
sand 378
kleinen 376
soccer 375
kamera 372
menschenmenge 371
skateboard 371
walks 371
guitar 370
along 370
boys 366
hair 365
working 365
paar 363
play 363
food 362
hunde 361
rock 361
er@@ 361
together 361
vorbei 356
gras 356
a@@ 356
hoch 355
pool 354
smiling 353
des 350
schnee 349
rennt 348
restaurant 347
ten 344
gray 343
it 342
game 340
picture 340
has 339
ihre 337
an@@ 336
s 335
unter 331
car 331
plays 331
kleid 329
&quot; 325
feld 324
ver@@ 322
holds 322
ihren 321
e 316
pants 316
fahren 314
bench 314
road 314
gitarre 313
side 313
him 312
old 310
glasses 306
s@@ 304
walk 304
t@@ 303
sit 303
stage 303
carrying 300
älterer 299
couple 299
sein 298
g@@ 298
rennen 298
e@@ 297
bühne 295
brille 294
bank 294
zusammen 292
draußen 292
ihr 290
them 290
bicycle 287
t 286
i@@ 284
als 284
en@@ 284
braunen 282
male 282
foto 281
baseball 281
face 281
herum 280
race 280
weißer 279
tree 279
seine 277
kopf 277
blickt 276
hose 276
basketball 276
sehen 275
taking 275
stadt 274
gehweg 273
each 272
uniform 271
d@@ 271
te 270
en 270
football 270
laufen 268
doing 267
seinen 266
dabei 266
weg 266
re@@ 264
head 263
day 263
watching 261
across 261
dirt 260
guy 260
boat 259
there 259
area 258
bus 257
hinunter 257
blond 257
liegt 256
in@@ 256
k@@ 256
team 256
tragen 254
versucht 253
arbeitet 251
brauner 251
tennis 251
jumps 250
be 249
back 249
ter 248
hands 248
ground 246
m@@ 245
female 245
room 245
kids 244
schauen 242
performing 241
wand 240
dame 240
wie 239
coat 239
große 238
its 238
or 238
who 238
ch@@ 237
machen 236
he 236
ed 236
eating 236
f@@ 235
lächelt 234
gen 234
sch@@ 234
using 233
being 233
striped 232
orangefarbenen 231
suit 231
ihrem 229
arbeiten 228
schwarz 228
ers 227
di@@ 226
watch 226
under 225
b@@ 224
ältere 224
horse 223
store 223
many 223
halten 222
tag 222
ihm 222
boot 222
o@@ 221
mouth 221
purple 221
junges 220
zeigt 220
arm 219
sign 219
long 218
hosen 216
bürgersteig 216
this 216
liest 215
sieht 215
outfit 215
un@@ 215
look 215
spricht 214
runs 212
reading 210
unterhalten 209
players 209
sunglasses 208
construction 208
spieler 207
haaren 204
helm 204
clothing 203
pferd 202
y 202
microphone 202
p@@ 201
c@@ 201
mountain 200
mantel 199
rosa 199
ocean 199
toy 199
workers 198
dark 198
viele 197
auf@@ 197
during 197
de@@ 196
sonnenbrille 195
z@@ 195
grauen 195
weißem 194
zum 194
middle 194
watches 194
bild 193
ing 193
climbing 193
blauem 192
gekleidete 191
trick 191
work 191
past 191
seiner 190
ins 190
elderly 190
anzug 189
“ 188
ein@@ 188
auto 187
gesicht 187
helmet 187
against 187
ra@@ 185
train 185
dancing 184
singt 183
window 183
klettert 182
n@@ 182
ihnen 181
rides 181
all 179
führt 178
al@@ 178
„ 178
they 178
chair 178
weiß 177
graffiti 177
posing 177
about 177
spiel 176
five 176
covered 175
u@@ 174
de 174
ab@@ 174
fußball 174
posiert 174
bag 174
trees 174
st@@ 173
felsen 173
darauf 173
wooden 173
having 173
waiting 173
outdoor 173
fünf 172
raum 172
arbeiter 172
d 172
shirts 172
einige 170
very 170
li@@ 169
befindet 169
blauer 169
swimming 169
getting 168
wirft 167
bar 167
stuhl 166
baum 166
ice 166
floor 166
blau 165
line 165
trying 165
mikrofon 164
schild 163
g 163
colorful 163
fenster 162
la@@ 162
le@@ 162
weiße 161
schwarzem 161
sehr 161
statue 161
gekleideter 160
busy 160
jump 159
singing 159
fence 159
ge 157
trikot 156
geschäft 156
cart 156
wiese 155
ro@@ 155
meer 155
pullover 155
rotem 155
ds 155
springen 154
schwarze 154
oder 154
truck 154
kindern 153
roter 153
ung 153
langen 153
wald 153
book 153
schen 152
hand@@ 152
high 152
isst 151
big 151
k 151
frisbee 151
light 151
ride 151
männern 150
wagen 150
holz@@ 150
lo@@ 150
o 150
hill 150
market 150
laying 150
inside 150
bluse 149
anderer 149
mütze 149
board 149
hats 149
do@@ 148
wartet 148
se 148
gestreiften 148
i 148
se@@ 148
cap 148
tan 148
aus@@ 147
body 147
bright 147
motorrad 146
h@@ 145
others 145
kitchen 145
v@@ 144
l 144
buch 144
el@@ 144
si@@ 144
cellphone 144
path 144
grassy 144
alter 143
parade 143
someone 143
voller 142
ern 142
ma@@ 142
ri@@ 142
ti@@ 142
making 142
posieren 141
haar 141
takes 141
night 141
clothes 141
rot 140
zug 140
werden 140
ts 140
motorcycle 140
tanzen 139
st 139
umbrella 139
stock 138
towards 138
full 138
oberkörper 137
sweatshirt 137
volleyball 137
computer 137
track 137
enjoying 137
brick 137
ger 136
bereitet 136
see 136
zieht 136
surfer 136
hügel 135
n 135
shop 135
metal 135
platz 134
markt 134
paper 134
river 134
swing 134
l@@ 133
reitet 133
tank 133
piece 133
ready 133
sche 132
betrachtet 132
me@@ 131
she 131
handy 130
warten 130
zu@@ 130
blonde 130
leuten 130
w@@ 130
hockey 130
zwischen 130
party 130
ca@@ 130
art 130
oben 129
spielzeug 129
instrument 129
open 129
snowboarder 129
tasche 128
em 128
ba@@ 128
sweater 128
grill 127
schläft 127
berg 127
ab 127
colored 127
bäumen 126
worker 126
po@@ 125
stick 125
lehnt 124
pa@@ 124
p 124
painting 124
above 124
bu@@ 123
vor@@ 123
lake 123
fangen 122
mi@@ 122
händen 122
um@@ 122
con@@ 122
house 122
phone 122
dance 122
adults 122
going 122
maul 121
seite 121
to@@ 121
set 121
run 121
music 121
at@@ 120
fluss 120
küche 120
sp@@ 120
tes 120
miteinander 120
beobachtet 120
shopping 120
hard 120
vest 120
snowy 120
le 119
sh@@ 119
surrounded 119
wave 119
ta@@ 118
ihrer 118
tanzt 118
stone 118
uniforms 118
onto 118
rucksack 117
kleinkind 117
bauarbeiter 117
ss@@ 117
zaun 117
so@@ 117
cowboy 117
kid 117
subway 117
outdoors 117
crowded 117
al 116
lächeln 116
radfahrer 116
couch 116
photo 116
schiebt 115
backpack 115
beside 115
smiles 115
gear 115
on@@ 114
end 114
wasser@@ 114
mo@@ 114
haben 114
sa@@ 114
pole 114
teil 113
vom 113
2 113
welle 113
befinden 112
her@@ 112
gegen 112
american 112
african 112
drinking 112
rücken 111
schwimmbecken 111
chen 111
treppe 111
it@@ 111
family 111
denen 110
über@@ 110
r@@ 110
event 110
fire 110
bridge 110
flowers 110
haus 109
skateboarder 109
co@@ 109
ar@@ 109
lot 109
toddler 109
unter@@ 108
ly 108
police 108
guys 108
gathered 108
malt 107
nimmt 107
kurzen 107
arms 107
hanging 107
ert 106
asiatische 106
ck 106
y@@ 106
catch 106
away 106
brücke 105
ges 105
pro@@ 105
show 105
preparing 105
beautiful 105
ck@@ 104
ke 104
schneidet 104
stück 103
ni@@ 103
gebäudes 103
familie 103
verkauft 103
blumen 103
zur 103
object 103
steps 103
sleeping 103
costume 103
leaning 103
mitten 102
or@@ 102
großer 102
ka@@ 102
machine 102
like 102
after 102
fishing 102
einander 101
trinkt 101
m 101
rosafarbenen 101
bikini 101
versammelt 101
jemand 101
te@@ 101
pose 101
ting 101
ex@@ 100
hängt 100
ent@@ 100
bunten 100
sprung 100
ve 100
rope 100
fountain 100
plaid 100
geländer 99
ei@@ 99
erwachsene 99
fe@@ 99
shirtless 99
stairs 99
lich 98
sen 98
wa@@ 98
autos 98
teams 98
ihn 98
rocks 98
take 98
chairs 98
ende 97
bo@@ 97
hof 97
ch 97
rote 97
he@@ 97
rodeo 97
drink 97
adult 97
spiel@@ 96
ber@@ 96
gerade 96
reihe 96
telefoniert 96
shoes 96
belebten 95
tritt 95
spazieren 95
vi@@ 95
hebt 95
gt 95
hemden 94
umgeben 94
schlägt 94
metall@@ 94
dock 94
schwimmt 94
straßen@@ 94
blicken 94
ha@@ 94
gen@@ 94
glass 94
selling 94
sunny 94
mutter 93
winter 93
does 93
forest 93
ger@@ 92
gewässer 92
we@@ 92
schaukel 92
laden 92
new 92
ru@@ 92
ski 92
ps 92
wood 92
setting 92
racing 92
weste 91
bart 91
decke 91
gekleidet 91
schneebedeckten 91
fliegt 91
fußballspieler 91
kostüm 91
vielen 91
freiem 91
view 91
bikes 91
tall 91
station 90
bi@@ 90
seil 90
grünem 90
flag 90
putting 90
both 90
corner 90
sonnigen 89
teenager 89
hände 89
ten@@ 89
publikum 89
ne@@ 89
eren 89
fuß 89
short 89
pushing 89
throwing 89
himmel 88
richtung 88
fla@@ 88
way 88
equipment 88
ding 88
have 88
slide 88
ladies 88
between 88
kämpfen 87
hohen 87
weißes 87
fest 87
sofa 87
pe@@ 87
public 87
laughing 87
bahn 86
alte 86
herunter 86
dunklen 86
am@@ 86
instruments 86
da@@ 85
wi@@ 85
fish 85
bed 85
pictures 85
bereiten 84
fahrzeug 84
blaue 84
dach 84
sen@@ 84
da 84
land 84
au@@ 84
nen 84
kopfbedeckung 84
net 84
zuschauen 84
plastic 84
ramp 84
asiatischer 83
eln 83
zuschauer 83
blondes 83
musik 83
3 83
ut@@ 83
base 83
sta@@ 83
orangen 83
marathon 83
which 83
playground 83
works 83
poses 83
trail 83
woods 83
reads 83
yard 83
ur@@ 82
überqueren 82
sten 82
mannes 82
alten 82
scher 82
zeitung 82
pi@@ 82
blick 82
ho@@ 82
fi@@ 82
c 82
school 82
sun 82
skirt 82
concrete 82
beard 82
der@@ 81
ons 81
sh 81
midair 81
papier 80
stein@@ 80
ckt 80
sk@@ 80
ster 80
hinauf 80
th@@ 80
bowling 80
number 80
just 80
led 80
enden 79
kunststück 79
ken 79
karierten 79
mauer 79
les 79
seated 79
braune 78
mar@@ 78
genießt 78
davon 78
schirm 78
den@@ 78
where 78
distance 78
lined 78
maschine 77
ko@@ 77
zusehen 77
schuhen 77
laptop 77
ausrüstung 77
stange 77
attire 77
toward 77
get 77
what 77
bags 77
ling 76
sechs 76
lacht 76
gelber 76
stufen 76
ker 76
gibt 76
e-@@ 76
mittleren 76
zuschauern 76
veranstaltung 76
car@@ 76
box 76
beer 76
six 76
cooking 76
mitte 75
führen 75
bereich 75
benutzt 75
boots 75
menge 75
clown 75
rampe 75
b 75
right 75
vests 75
cutting 75
blond-hair 75
filled 75
rider 75
leiter 74
großes 74
nummer 74
lässt 74
fa@@ 74
stühlen 74
einigen 74
gegenstand 74
court 74
cream 74
buildings 74
cross 74
shore 74
left 74
pulling 74
tent 74
spielplatz 73
chten 73
tunnel 73
hell@@ 73
ssen 73
sport@@ 73
ches 73
baseballspieler 73
treten 73
unterhält 73
korb 73
alters 73
mensch 73
home 73
mother 73
middle-aged 73
zusieht 72
liche 72
bereit 72
rasen 72
trinken 72
stellt 72
ben 72
- 72
fotos 72
; 72
smoking 72
concert 72
sky 72
crossing 72
cliff 72
friends 72
appears 72
schi@@ 71
ler 71
scheint 71
j@@ 71
nebeneinander 71
nahe 71
zuschaut 71
bearded 71
edge 71
showing 71
spectators 71
mountains 71
few 71
rei@@ 70
hoch@@ 70
bett 70
ü@@ 70
nachts 70
tra@@ 70
bar@@ 70
pp@@ 70
fußball@@ 70
mannschaft 70
armen 70
for@@ 70
lila 70
– 70
make 70
horses 70
jersey 70
cars 70
&apos; 69
typ 69
surfboard 69
son 69
nearby 69
scarf 69
suits 69
performs 69
dresses 69
tor 68
bier 68
hinten 68
sonne 68
augen 68
rotes 68
beton@@ 68
mund 68
zelt 68
roller 68
versuchen 68
zigarette 68
kostümen 68
tem 68
ce 68
ss 68
trikots 68
outfits 68
driving 68
carries 68
apron 68
perform 68
legt 67
mehreren 67
läufer 67
coffee 67
fruit 67
ted 67
time 67
arts 67
leaves 67
holz 66
schürze 66
schwimm@@ 66
schal 66
fängt 66
werfen 66
beobachten 66
eis@@ 66
pre@@ 66
back@@ 66
ste@@ 66
biker 66
cake 66
ls 66
gentleman 66
painted 66
structure 66
parked 66
vendor 66
flower 66
various 66
cigarette 66
uses 66
students 66
flagge 65
kniet 65
westen 65
sti@@ 65
ga@@ 65
ä@@ 65
na@@ 65
öffentlichen 65
rad 65
beide 65
raucht 65
tor@@ 65
gi@@ 65
ski@@ 65
go 65
sc@@ 65
no 65
w 65
talks 65
cup 65
vehicle 65
goggles 65
younger 65
smile 65
shot 65
nicht 64
verschneiten 64
wanderer 64
cken 64
ter@@ 64
rutscht 64
gold 64
ring 64
nehmen 64
ferne 64
hang 64
betrachten 64
liegen 64
ble 64
no@@ 64
us 64
stri@@ 64
qu@@ 64
tri@@ 64
bottle 64
flying 64
door 64
lit 64
martial 64
drums 64
lying 64
grün 63
rutsche 63
et 63
hüten 63
grüner 63
gra@@ 63
ö@@ 63
do 63
paint 63
kicking 63
flags 63
eyes 63
bathing 63
hit 63
fahr@@ 62
klettern 62
erwachsener 62
unten 62
gehsteig 62
blonden 62
ange@@ 62
diese 62
su@@ 62
ar 62
et@@ 62
zen 62
same 62
guckt 62
bull 62
balls 62
parking 62
waves 62
safety 62
rocky 62
swinging 62
coming 62
newspaper 62
jackets 62
prepares 62
rain 62
pfad 61
ms 61
lachen 61
mat@@ 61
tür 61
fri@@ 61
tennisball 61
gemüse 61
drinks 61
hi@@ 61
außerhalb 61
cra@@ 61
bärtiger 61
hot 61
conversation 61
gather 61
different 61
bucket 61
practicing 61
costumes 61
gloves 61
indian 61
nacht 60
dass 60
schwarz-weißer 60
cht 60
u-bahn 60
elt 60
y-@@ 60
kommt 60
blumen@@ 60
greift 60
snowboard 60
pass 60
lan@@ 60
bau@@ 60
kleidern 60
ci@@ 60
skateboarding 60
can 60
tie 60
ladder 60
cleaning 60
bunch 60
scene 60
competition 60
roof 60
listening 60
cement 60
reden 59
cu@@ 59
ki@@ 59
blaues 59
männliche 59
lin@@ 59
musiker 59
gelbe 59
surft 59
t-@@ 59
hold 59
wait 59
wet 59
blanket 59
items 59
onlookers 59
staring 59
schwarz-@@ 58
konzert 58
streckt 58
skifahrer 58
zi@@ 58
hilft 58
hammer 58
durch@@ 58
fotografiert 58
cafe 58
il@@ 58
gelbem 58
display 58
mu@@ 58
geh@@ 58
stra@@ 58
go@@ 58
aufschrift 58
stop 58
ks 58
king 58
balloon 58
meal 58
pile 58
lawn 58
railing 58
audience 58
bicycles 58
giving 58
empty 58
desk 58
städtischen 57
ufer 57
pf@@ 57
schlagen 57
licher 57
brunnen 57
sonnenuntergang 57
man@@ 57
lichen 57
beiden 57
flo@@ 57
t-shirts 57
win@@ 57
schreibt 57
cre@@ 57
match 57
basketballspieler 57
bird 57
country 57
leaps 57
military 57
gets 57
umgebung 56
tischen 56
eis 56
hin@@ 56
damen 56
arbeit 56
erin 56
leine 56
haare 56
herr 56
cher 56
schnee@@ 56
überquert 56
waren 56
golf 56
pier 56
surfing 56
wedding 56
bowl 56
sliding 56
gathering 56
sing 56
sports 56
vegetables 56
pointing 56
gu@@ 55
fisch 55
ungs@@ 55
nacktem 55
gerät 55
ku@@ 55
eimer 55
zer@@ 55
gelb 55
jacken 55
gegend 55
dra@@ 55
polizisten 55
versammeln 55
kan@@ 55
class 55
facing 55
feet 55
streets 55
chasing 55
before 55
competing 55
fahrer 54
vater 54
sprechen 54
erwachsenen 54
dern 54
schuhe 54
ke@@ 54
getränk 54
bre@@ 54
gestreiftem 54
uniformen 54
ren@@ 54
handschuhen 54
polizist 54
blonder 54
zimmer 54
gs 54
pan@@ 54
plate 54
lights 54
platform 54
ated 54
huge 54
helmets 54
speaking 54
mask 54
basket 54
tattoo 53
lesen 53
ziehen 53
roll@@ 53
s-@@ 53
garten 53
leeren 53
rot-@@ 53
glas 53
low 53
block 53
el 53
silver 53
bride 53
skier 53
ying 53
tries 53
ging 53
classroom 53
tro@@ 52
du@@ 52
kuchen 52
h 52
badeanzug 52
genießen 52
flie@@ 52
ster@@ 52
stiefeln 52
setzt 52
club 52
ping 52
anzügen 52
tricks 52
purse 52
climbs 52
father 52
seen 52
alley 52
traditional 52
waits 52
sings 52
place 52
pu@@ 51
gel@@ 51
gelbes 51
spe@@ 51
f 51
em@@ 51
ure 51
haufen 51
har@@ 51
was 51
tu@@ 51
york 51
d-@@ 51
4 51
men@@ 51
regen 51
jagt 51
arena 51
asiatischen 51
sort 51
break 51
fighting 51
urban 51
rail 51
kissing 51
counter 51
screen 51
animal 51
musicians 51
alle 50
braut 50
wobei 50
obst 50
sm@@ 50
sch 50
abge@@ 50
ohne 50
kl@@ 50
netz 50
fahrrad@@ 50
schwimmen 50
je@@ 50
gekleideten 50
verschiedene 50
feuer 50
fell 50
kunst@@ 50
kaufen 50
schlagzeug 50
landschaft 50
deck 50
maske 50
singen 50
soldaten 50
studio 50
inmitten 50
site 50
ft 50
runner 50
happy 50
ded 50
stroller 50
skating 50
females 50
schutzhelm 49
grüne 49
pause 49
grauem 49
stein 49
parkplatz 49
dreht 49
wellen 49
kt 49
schwingt 49
ere 49
arme 49
braunem 49
riesigen 49
starrt 49
jo@@ 49
sto@@ 49
taschen 49
blo@@ 49
motor@@ 49
fans 49
op@@ 49
regenschirm 49
talk 49
scooter 49
business 49
walkway 49
hole 49
shoulder 49
lap 49
kneeling 49
sunset 49
throw 49
writing 49
sohn 48
fast 48
schwarzes 48
bergen 48
flasche 48
anderes 48
gebäuden 48
fallen 48
ol@@ 48
r 48
motorradfahrer 48
älteren 48
ner 48
che@@ 48
sches 48
ir@@ 48
blau-@@ 48
keyboard 48
min@@ 48
per@@ 48
gemeinsam 48
kinderwagen 48
waving 48
blowing 48
bald 48
christmas 48
attempting 48
violin 48
gan@@ 47
ul@@ 47
grünes 47
baustelle 47
jugendlicher 47
offenen 47
farben 47
wo 47
ender 47
straßenrand 47
hal@@ 47
cht@@ 47
pflanzen 47
kappe 47
kunden 47
gebiet 47
straßen 47
war@@ 47
kon@@ 47
video 47
schul@@ 47
lächelnd 47
ine 47
cks 47
robe 47
hört 47
straßenecke 47
finger 47
stunt 47
chinese 47
life 47
tables 47
overlooking 47
made 47
course 47
cking 47
ces 47
signs 47
tasse 46
baum@@ 46
che 46
schoß 46
so 46
mikrophon 46
vogel 46
hin 46
bra@@ 46
schw@@ 46
dieser 46
fel@@ 46
aufge@@ 46
zurück 46
umarmt 46
bun@@ 46
orangefarbener 46
ug@@ 46
lu@@ 46
fo@@ 46
pinkfarbenen 46
van 46
blond-haired 46
bubbles 46
says 46
artist 46
officer 46
mirror 46
putzt 45
dar@@ 45
arbeit@@ 45
wal@@ 45
softball 45
bro@@ 45
tet 45
sonnen@@ 45
liches 45
cor@@ 45
schlitten 45
gut 45
gleich 45
ses 45
krawatte 45
ja@@ 45
square 45
renn@@ 45
schreibtisch 45
dunkelhäutiger 45
sun@@ 45
hoodie 45
giant 45
leans 45
balloons 45
fixing 45
cked 45
cal 45
close 45
ausge@@ 44
kurz 44
pin@@ 44
hau@@ 44
ung@@ 44
schatten 44
lkw 44
sandalen 44
baseball@@ 44
schläger 44
gar@@ 44
weiß-@@ 44
berg@@ 44
schlange 44
repariert 44
vordergrund 44
ders 44
fen 44
tw@@ 44
zt 44
stadt@@ 44
ad@@ 44
pitcher 44
karate 44
wo@@ 44
ment 44
skate 44
alone 44
swim 44
faces 44
teenage 44
ched 44
brunette 44
helping 44
wheel 44
leg 44
collar 44
foreground 44
gym 44
over@@ 44
leather 44
umbrellas 44
eh@@ 43
flugzeug 43
ation 43
vollen 43
loch 43
ganz 43
beugt 43
ws 43
hängen 43
ste 43
gekleidetes 43
wel@@ 43
fahrrädern 43
stadium 43
fahrradfahrer 43
sts 43
licht 43
snow@@ 43
poster 43
voll 43
festival 43
podium 43
gegeneinander 43
kurzer 43
electric 43
mud 43
asleep 43
enjoy 43
sticks 43
legs 43
brightly 43
meat 43
dancers 43
headphones 43
einkaufswagen 42
bedeckt 42
verkaufen 42
gro@@ 42
jemandem 42
schüssel 42
ssi@@ 42
reiten 42
spielzeug@@ 42
steigen 42
lächelnde 42
ppen 42
är@@ 42
len 42
erten 42
beg@@ 42
dri@@ 42
äu@@ 42
asiatisches 42
schüler 42
balanciert 42
skater 42
dr@@ 42
squ@@ 42
bahn@@ 42
schiedsrichter 42
toys 42
footballspieler 42
skiing 42
pferden 42
football-spieler 42
goal 42
photographer 42
washing 42
sandals 42
among 42
swings 42
makes 42
officers 42
office 42
diving 42
falling 42
bat 42
passing 42
wears 42
cker 41
kreis 41
bs 41
dessen 41
winkt 41
badehose 41
küsst 41
klein@@ 41
flip 41
gegenüber 41
weibliche 41
angel@@ 41
ze 41
höhe 41
spiegel 41
erde 41
fällt 41
chi@@ 41
stre@@ 41
ur 41
ph@@ 41
row 41
künstler 41
par@@ 41
zeit 41
fall 41
singer 41
males 41
multicolored 41
dark-haired 41
held 41
dirty 41
church 41
friend 41
barefoot 41
hiking 41
musical 41
heads 41
doorway 41
felswand 40
ne 40
schulter 40
strecke 40
gla@@ 40
bekleidung 40
ungen 40
zeichen 40
lt 40
heben 40
ell@@ 40
( 40
z 40
café 40
lauf@@ 40
sachen 40
halsband 40
schlag 40
sand@@ 40
klassenzimmer 40
orangefarbenem 40
chef 40
gre@@ 40
ves 40
surfbrett 40
hellbrauner 40
mobiltelefon 40
cur@@ 40
sport 40
here 40
performance 40
move 40
reaching 40
ating 40
drawing 40
leash 40
accordion 40
throws 40
canoe 40
picking 40
traffic 40
cloth 40
overall 39
iert 39
telefon 39
tz@@ 39
bt 39
belebte 39
fer 39
land@@ 39
gerüst 39
wor@@ 39
handstand 39
groß@@ 39
schaufel 39
5 39
auto@@ 39
unbefestigten 39
) 39
bäume 39
mon@@ 39
fleisch 39
run@@ 39
kar@@ 39
tanz 39
helmen 39
steine 39
plastik@@ 39
beige 39
ball@@ 39
wurf 39
ecke 39
! 39
spar@@ 39
kanu 39
oberteilen 39
per 39
tion 39
overalls 39
bri@@ 39
sting 39
lone 39
below 39
shallow 39
members 39
relaxing 39
daughter 39
digging 39
well 39
nach@@ 38
aussieht 38
davor 38
seines 38
kajak 38
zeigen 38
leuchtend 38
mm@@ 38
ben@@ 38
hinter@@ 38
onen 38
bade@@ 38
rolling 38
steigt 38
schuh 38
fall@@ 38
ff@@ 38
me 38
bein 38
hauses 38
ats 38
yo@@ 38
redet 38
tre@@ 38
durchs 38
deep 38
gucken 38
ct@@ 38
kick 38
garden 38
catching 38
moving 38
hugging 38
ved 38
atop 38
shovel 38
catches 38
gives 38
cat 38
microscope 38
passes 38
foot 38
bicyclist 38
schlauch 37
hunden 37
dreadlocks 37
ene 37
x 37
ze@@ 37
mit@@ 37
rand 37
verschiedenen 37
gepflasterten 37
spaß 37
makeup 37
ort 37
stadion 37
rennstrecke 37
küssen 37
pen 37
eri@@ 37
mer@@ 37
app@@ 37
schnauze 37
ce@@ 37
gate 37
sweeping 37
resting 37
prepare 37
lab 37
sleeps 37
sed 37
shows 37
sled 37
climb 37
paved 37
fun 37
drum 37
pping 37
leaping 37
flies 37
männlicher 36
farbenfrohen 36
schönen 36
form@@ 36
igen 36
steinen 36
grasbewachsenen 36
irgend@@ 36
lastwagen 36
schultern 36
ve@@ 36
seifenblasen 36
gten 36
teller 36
mikroskop 36
gelegt 36
museum 36
fahrt 36
wettkampf 36
braun 36
fre@@ 36
gri@@ 36
tanktop 36
kai 36
tier 36
x@@ 36
len@@ 36
asiatisch 36
tochter 36
ver 36
puck 36
fu@@ 36
ut 36
ringen 36
reiter 36
hel@@ 36
musik@@ 36
formal 36
ans 36
basketball@@ 36
lilafarbenen 36
books 36
these 36
pond 36
sculpture 36
individuals 36
lies 36
trunks 36
cting 36
desert 36
wear 36
lots 36
splashing 36
upside 36
cold 36
conversing 36
teeth 36
coats 36
photograph 36
regen@@ 35
bis 35
stü@@ 35
cam@@ 35
fläche 35
kirche 35
wir@@ 35
lau@@ 35
kocht 35
kauft 35
katze 35
än@@ 35
kommen 35
grün-@@ 35
akkordeon 35
ent 35
fußballspiel 35
violetten 35
chern 35
det 35
plan@@ 35
gang 35
dd@@ 35
freunde 35
klippe 35
rest 35
küste 35
spielfeld 35
blatt 35
golden 35
cro@@ 35
student 35
carnival 35
jogging 35
how 35
wrestling 35
customers 35
telescope 35
closed 35
town 35
round 35
gun 35
points 35
underneath 35
tire 35
plants 35
brett 34
wohn@@ 34
cke 34
hellen 34
gegnerischen 34
freunden 34
braun-weißer 34
teich 34
ers@@ 34
schaukelt 34
bedient 34
farbenen 34
ate 34
innen 34
unterwegs 34
parkbank 34
karren 34
sel@@ 34
tuch 34
gasse 34
ß@@ 34
grauer 34
ser 34
kel@@ 34
bemalt 34
nur 34
bur@@ 34
plane 34
bla@@ 34
center 34
inter@@ 34
aussehende 34
cheerleaders 34
dinner 34
local 34
mat 34
cane 34
cyclist 34
opposing 34
themselves 34
project 34
without 34
shoulders 34
cut 34
dances 34
hiker 34
waters 34
eat 34
including 34
shoe 34
schutzhelmen 33
instrumenten 33
hunde@@ 33
sieben 33
sam@@ 33
beleuchteten 33
zusammen@@ 33
schneiden 33
bringt 33
bil@@ 33
umarmen 33
theke 33
arti@@ 33
kampf@@ 33
langem 33
lie@@ 33
schwimmbrille 33
trampolin 33
ser@@ 33
reifen 33
entspannt 33
ton@@ 33
instrumente 33
geige 33
stehenden 33
damit 33
kopfhörer 33
hol@@ 33
holt 33
lea@@ 33
jockey 33
mannschaften 33
ant 33
ven 33
ober@@ 33
flaggen 33
moped 33
opening 33
pipe 33
booth 33
driver 33
circle 33
crosswalk 33
seat 33
straw 33
crying 33
pulled 33
infant 33
wooded 33
mural 33
fight 33
trampoline 33
matching 33
racket 33
taken 33
produce 33
ely 33
runners 33
skiern 32
objekt 32
skulptur 32
far@@ 32
verkäufer 32
einge@@ 32
verwendet 32
all@@ 32
umge@@ 32
dies 32
sol@@ 32
sli@@ 32
jongliert 32
gh@@ 32
u 32
bl@@ 32
berge 32
vers@@ 32
ous 32
sor@@ 32
scht 32
tänzer 32
1@@ 32
enen 32
wei@@ 32
tur@@ 32
schlamm 32
kor@@ 32
itt@@ 32
not 32
ell 32
fol@@ 32
hüpft 32
lauf 32
ens 32
lift 32
band@@ 32
kes 32
fe 32
fle@@ 32
becher 32
ters 32
teenagers 32
sha@@ 32
stuffed 32
picnic 32
gymnast 32
covering 32
sewing 32
cted 32
nose 32
ching 32
shed 32
bicyclists 32
athlete 32
ors 32
trash 32
attempts 32
performer 32
surface 32
eingang 31
kaffee 31
barfuß 31
grillt 31
fahnen 31
links 31
veranda 31
bläst 31
geben 31
spa@@ 31
kü@@ 31
bauen 31
fro@@ 31
projekt 31
sitzende 31
bilder 31
linie 31
glas@@ 31
and@@ 31
reparieren 31
fäl@@ 31
tt@@ 31
wür@@ 31
dunkler 31
rechts 31
lächelnder 31
feldweg 31
son@@ 31
ruht 31
ft@@ 31
spritzt 31
schn@@ 31
sse 31
ast 31
taxi 31
fern 31
fotografieren 31
metall 31
moment 31
feuer@@ 31
hören 31
bei@@ 31
auftritt 31
rollerblades 31
dre@@ 31
tex@@ 31
raft 31
arm@@ 31
schießt 31
rugby 31
dancer 31
hoop 31
wing 31
skis 31
lays 31
boxes 31
blouse 31
himself 31
hikers 31
sandy 31
chases 31
cow 31
goes 31
slope 31
balcony 31
pushes 31
lunch 31
help 31
pedestrians 31
style 31
third 31
oriental 31
use 31
bogen 30
auch 30
schüttelt 30
sänger 30
werbung 30
goalie 30
dunkel@@ 30
mahlzeit 30
schau@@ 30
bekommt 30
position 30
handtasche 30
pri@@ 30
amerikanische 30
wüste 30
farbe 30
seil@@ 30
tennis@@ 30
gem 30
sitz@@ 30
tops 30
nase 30
geld 30
chen@@ 30
taucht 30
san@@ 30
schla@@ 30
haar@@ 30
fra@@ 30
beinen 30
hellblauen 30
schwimmer 30
tigen 30
wandert 30
cowboyhut 30
dun@@ 30
verfolgt 30
berührt 30
geschlossenen 30
stift 30
sal@@ 30
ban@@ 30
bedeckten 30
pit@@ 30
stern 30
rin@@ 30
stoff 30
kopftuch 30
springbrunnen 30
london 30
dan@@ 30
ty 30
hockt 30
ite 30
garage 30
clear 30
aussehender 30
dunkelhäutige 30
cs 30
sportler 30
ali@@ 30
asiate 30
piano 30
shooting 30
sco@@ 30
hula 30
staircase 30
puts 30
log 30
seven 30
turn 30
indoor 30
device 30
bent 30
pulls 30
neck 30
speaks 30
rad@@ 29
lö@@ 29
ran@@ 29
überfüllten 29
ie@@ 29
behälter 29
zwei@@ 29
va@@ 29
tennisspieler 29
reinigt 29
blocks 29
gr@@ 29
innen@@ 29
fin@@ 29
graben 29
end@@ 29
pra@@ 29
iten 29
teppich 29
hü@@ 29
kn@@ 29
äh@@ 29
linken 29
gezogen 29
nt 29
personengruppe 29
scha@@ 29
fer@@ 29
kampf 29
wein@@ 29
banner 29
gold@@ 29
terrasse 29
teilen 29
deut@@ 29
ati@@ 29
geln 29
wettbewerb 29
bringen 29
frei@@ 29
ing@@ 29
tr@@ 29
mänteln 29
skateboards 29
native 29
feier 29
fil@@ 29
sea@@ 29
nice 29
gers 29
ction 29
pot 29
saxophone 29
evening 29
boats 29
wetsuit 29
heavy 29
gentlemen 29
enjoys 29
swims 29
drives 29
shaking 29
grocery 29
marching 29
kinder@@ 28
streifen 28
anzu@@ 28
bel@@ 28
mp@@ 28
strand@@ 28
kten 28
heraus 28
ker@@ 28
pe 28
ori@@ 28
fahrräder 28
fan@@ 28
lei@@ 28
sses 28
ot@@ 28
bli@@ 28
pol@@ 28
ßen 28
koch 28
salto 28
müll 28
traditioneller 28
öffnet 28
feuerwehr@@ 28
endes 28
schießen 28
lederjacke 28
stell@@ 28
vorbei@@ 28
sub@@ 28
muster 28
ked 28
geländemotorrad 28
felsigen 28
let 28
ffen 28
part 28
tzen 28
zeichnet 28
üben 28
verkehr 28
spi@@ 28
umzug 28
tanz@@ 28
5@@ 28
kissen 28
hinab 28
winter@@ 28
bat@@ 28
diesem 28
sandwich 28
asiaten 28
football@@ 28
spiels 28
pinkfarbenem 28
tige 28
sack 28
can@@ 28
start 28
cha@@ 28
th 28
3@@ 28
ea@@ 28
age 28
asiatin 28
moves 28
sheet 28
pouring 28
kayak 28
ledge 28
jean 28
ped 28
kicks 28
ship 28
red-haired 28
porch 28
brown-haired 28
puddle 28
protective 28
water@@ 28
type 28
stream 28
tracks 28
khaki 28
garb 28
fingers 28
waterfall 28
wrapped 28
cloudy 28
fair 28
hangs 28
shaving 28
robes 28
foreign 28
steep 28
laundry 28
hu@@ 27
gesch@@ 27
gießt 27
kerl 27
karte 27
tru@@ 27
hockey@@ 27
nachdem 27
pferde 27
blätter 27
hellbraunen 27
pfütze 27
ckten 27
wäscht 27
kel 27
dieses 27
rothaarige 27
mor@@ 27
: 27
bach 27
sters 27
wit@@ 27
boards 27
balkon 27
nassen 27
bad 27
flug@@ 27
id 27
wine 27
hl@@ 27
mound 27
pen@@ 27
schnell 27
gleitet 27
fest@@ 27
untersucht 27
sprin@@ 27
cheerleader 27
kann 27
hun@@ 27
winterkleidung 27
stru@@ 27
zähne 27
2@@ 27
rück@@ 27
clo@@ 27
dro@@ 27
schirmen 27
defen@@ 27
vers 27
com@@ 27
ops 27
denim 27
polo 27
kiss 27
poles 27
sale 27
paddling 27
shoveling 27
reaches 27
try 27
bread 27
luggage 27
eye 27
red-hair 27
ful 27
birds 27
checking 27
opposite 27
attached 27
palm 27
backyard 27
sea 27
put 27
soldiers 27
skirts 27
colors 27
boun@@ 27
airplane 27
ct 27
pfosten 26
mal@@ 26
allein 26
spor@@ 26
fuß@@ 26
paddelt 26
ei 26
fun@@ 26
gg@@ 26
braunes 26
mel@@ 26
stapel 26
bikers 26
bunte 26
beieinander 26
bal@@ 26
farbener 26
kickt 26
stellen 26
rädern 26
zunge 26
dis@@ 26
horn 26
fü@@ 26
hals 26
schlafen 26
übt 26
stä@@ 26
will 26
wurde 26
skateboardfahrer 26
bullen 26
hockeyspieler 26
weitere 26
sitzender 26
schen@@ 26
le-@@ 26
box@@ 26
coach 26
&amp; 26
schle@@ 26
tan@@ 26
passanten 26
you 26
kurve 26
dol@@ 26
col@@ 26
but@@ 26
tools 26
jerseys 26
flight 26
frame 26
inflatable 26
clean 26
curb 26
tongue 26
string 26
wheelchair 26
soldier 26
laugh 26
balancing 26
windows 26
cones 26
camouflage 26
pavement 26
image 26
wind@@ 25
haariger 25
beton 25
viel 25
rä@@ 25
farbigen 25
ob 25
brünette 25
schuh@@ 25
lassen 25
laptops 25
chter 25
luftballons 25
kampfsport 25
getränke 25
becken 25
amerikanischen 25
mobile 25
wer 25
vie@@ 25
gräbt 25
teleskop 25
büro 25
silhouette 25
warm 25
bräutigam 25
koffer 25
fußgänger 25
frisch 25
sees 25
cowboys 25
gs@@ 25
tafel 25
rasiert 25
tau@@ 25
gezeigt 25
touristen 25
fä@@ 25
gel 25
ssion 25
din@@ 25
radrennen 25
wer@@ 25
ppe 25
helfen 25
orange-@@ 25
derby 25
vollführt 25
plant 25
tho@@ 25
rit@@ 25
.@@ 25
0@@ 25
magazine 25
bmx 25
spray 25
ballerina 25
bubble 25
summer 25
santa 25
color 25
living 25
floral 25
tractor 25
happily 25
courtyard 25
eats 25
shade 25
swimsuit 25
head@@ 25
railroad 25
walls 25
juggling 25
stool 25
floating 25
musician 25
buying 25
step 25
curly 25
laughs 25
fresh 25
fabric 25
ned 25
motorcycles 25
married 25
bottom 25
professional 25
riders 25
sell 25
cyclists 25
ckter 24
ich 24
ber 24
polizei@@ 24
kehrt 24
schöne 24
baumstamm 24
park@@ 24
hochzeit@@ 24
arbeitskleidung 24
hinterher 24
ballons 24
wischt 24
fischen 24
kuh 24
kante 24
bel 24
schreit 24
bewegt 24
spitze 24
fl@@ 24
matte 24
können 24
benutzen 24
scheibe 24
künst@@ 24
restaurants 24
gelb-@@ 24
tte 24
sitzenden 24
fen@@ 24
geschirr 24
rollstuhl 24
kisten 24
turnhalle 24
hotel 24
müll@@ 24
wasserfall 24
air@@ 24
hinaus 24
angelt 24
pizza 24
stan@@ 24
0 24
trommel 24
lebensmittel 24
grau 24
handtuch 24
straßenkünstler 24
abzu@@ 24
form 24
we 24
goldenen 24
legen 24
sum@@ 24
banan@@ 24
besen 24
darunter 24
rock@@ 24
v 24
gruppen 24
cat@@ 24
kat@@ 24
runden 24
ami@@ 24
hellhäutiger 24
scra@@ 24
barbecue 24
por@@ 24
pla@@ 24
neoprenanzug 24
vo@@ 24
flip-flops 24
backwards 24
guard 24
ery 24
scaffolding 24
carriage 24
surf 24
cheering 24
pit 24
sized 24
multiple 24
closeup 24
either 24
acoustic 24
garbage 24
bucking 24
pair 24
marketplace 24
tube 24
groom 24
appear 24
hurdle 24
socks 24
touching 24
nap 24
suspended 24
knee 24
shown 24
bandanna 24
goods 24
vely 24
pajamas 24
bü@@ 23
stop@@ 23
lang@@ 23
gemälde 23
glücklich 23
konzentriert 23
rechten 23
ziert 23
balken 23
feiern 23
stro@@ 23
baut 23
kreuzung 23
fal@@ 23
wander@@ 23
plattform 23
tel 23
geschäfts 23
braunhaarige 23
hütte 23
sucht 23
kochen 23
acht 23
nahaufnahme 23
chinesischen 23
blondem 23
richtet 23
vorbeigehen 23
laub 23
entfernt 23
gesäumten 23
alleine 23
mitglieder 23
star@@ 23
ang@@ 23
tern 23
tennisschläger 23
smo@@ 23
leder@@ 23
mer 23
ht 23
stu@@ 23
umher 23
studenten 23
candy 23
sä@@ 23
tisch@@ 23
9@@ 23
ie 23
steckt 23
geschmin@@ 23
kapuzenpulli 23
uni@@ 23
jungs 23
berges 23
salon 23
grin@@ 23
hen 23
jagen 23
ven@@ 23
crew 23
live 23
ärmellosen 23
drummer 23
verkleidet 23
training 23
money 23
os 23
ars 23
skates 23
amp 23
snack 23
kers 23
post 23
heels 23
mom 23
bow 23
stove 23
plaza 23
advertisement 23
kneels 23
fenced 23
dining 23
raised 23
underwater 23
hood 23
pped 23
direction 23
escalator 23
climber 23
pes 23
elling 23
animals 23
hooded 23
welding 23
caught 23
long-haired 23
japanese 23
backpacks 23
serving 23
airport 23
dry 23
bling 23
aring 23
sheep 23
german 23
paints 23
hay 23
landscape 23
towel 23
fully 23
ears 23
chain 23
sted 23
turn@@ 22
gn@@ 22
sin@@ 22
waldgebiet 22
rea@@ 22
geworfen 22
schlä@@ 22
fliegen 22
offenem 22
lächelndes 22
karate@@ 22
mützen 22
zwe@@ 22
richten 22
kle@@ 22
mittel@@ 22
freund 22
topf 22
glück@@ 22
skleidung 22
einkauf@@ 22
genen 22
ziegel@@ 22
pl@@ 22
peace 22
wohnzimmer 22
küchen@@ 22
besu@@ 22
lehnen 22
kalten 22
figur 22
bow@@ 22
kil@@ 22
bällen 22
sitz 22
mü@@ 22
gläsern 22
befestigt 22
texas 22
werk@@ 22
motorrädern 22
gegenstände 22
trainiert 22
del@@ 22
rot-weißen 22
ör@@ 22
stoff@@ 22
röcken 22
abend 22
kin@@ 22
weit 22
militär@@ 22
hl 22
stark 22
treffen 22
indische 22
folgt 22
fotograf 22
els 22
top@@ 22
essen@@ 22
pur@@ 22
colle@@ 22
setzen 22
weihnachtsbaum 22
hör@@ 22
rolltreppe 22
ket@@ 22
slo@@ 22
sur@@ 22
spielerin 22
hlen 22
jemanden 22
ble@@ 22
sw@@ 22
first 22
zen@@ 22
eins 22
gewand 22
afrikanische 22
8 22
schildern 22
desig@@ 22
assi@@ 22
skatepark 22
brea@@ 22
boxer 22
bass 22
gas 22
sets 22
geschäftigen 22
stadtstraße 22
tin@@ 22
good 22
print 22
2012 22
operating 22
neon 22
read 22
grilling 22
ary 22
things 22
shes 22
obstacle 22
vehicles 22
brush 22
brushing 22
ear@@ 22
gravel 22
wed 22
seems 22
ings 22
participating 22
amusement 22
bending 22
individual 22
shaped 22
checkered 22
thrown 22
ning 22
orchestra 22
teacher 22
lines 22
ged 22
ic 22
referee 22
caucasian 22
decorated 22
athletic 22
examining 22
traktor 21
poli@@ 21
wat@@ 21
geri@@ 21
silbernen 21
schwarz-weißen 21
kre@@ 21
schaufelt 21
ern@@ 21
nähert 21
rast 21
mehr@@ 21
hölzernen 21
bushaltestelle 21
hocke 21
kä@@ 21
vier@@ 21
anti@@ 21
weint 21
daumen 21
ssen@@ 21
gehalten 21
bahnsteig 21
bücher 21
part@@ 21
baseballkappe 21
ihres 21
bewegung 21
bin@@ 21
mitarbeiter 21
blei@@ 21
golf@@ 21
brot 21
ße 21
aufen 21
rau@@ 21
bänken 21
speisen 21
angezogen 21
verkauf 21
füßen 21
schutz@@ 21
papier@@ 21
kunststücke 21
garten@@ 21
tief 21
gelehnt 21
streichelt 21
tieren 21
span@@ 21
steinmauer 21
wänden 21
decken 21
ute 21
verkehr@@ 21
dunkelhaarige 21
kiste 21
protest 21
außen@@ 21
lä@@ 21
foto@@ 21
haltung 21
wild@@ 21
off@@ 21
werkzeug 21
kopf@@ 21
geschenk 21
ner@@ 21
tattoos 21
genden 21
plakat 21
theater 21
sonnenbrillen 21
hilfe 21
seiten 21
wh@@ 21
steilen 21
dig@@ 21
schäferhund 21
spielern 21
kie@@ 21
wie@@ 21
also 21
bildschirm 21
pitch 21
cello 21
snowboarding 21
jugendliche 21
6 21
wandbild 21
ani@@ 21
ns 21
domin@@ 21
she@@ 21
kahlköpfiger 21
komplett 21
-up 21
trägerhemd 21
stones 21
ity 21
1 21
up@@ 21
ny 21
ad 21
ac@@ 21
lar 21
tourist 21
out@@ 21
res 21
motocross 21
model 21
ropes 21
atv 21
map 21
crouches 21
tub 21
firefighters 21
bles 21
passengers 21
rowing 21
benches 21
harness 21
compete 21
attempt 21
scuba 21
hitting 21
rests 21
turning 21
cone 21
feeding 21
muddy 21
button 21
hallway 21
only 21
practice 21
tourists 21
chest 21
haircut 21
presentation 21
photographs 21
sharing 21
sticking 21
wagon 21
opponent 21
rec@@ 21
racer 21
blättern 20
weiß@@ 20
ju@@ 20
kra@@ 20
kletterer 20
gummi@@ 20
rohr 20
gesi@@ 20
blond@@ 20
haariges 20
nu@@ 20
joggen 20
kla@@ 20
geparkt 20
ess@@ 20
schiff 20
menschengruppe 20
sammelt 20
gesichts@@ 20
fli@@ 20
kamera@@ 20
ähn@@ 20
joggt 20
schmutzigen 20
teil@@ 20
gepäck 20
puppe 20
sich@@ 20
oni@@ 20
del 20
piste 20
hn@@ 20
pul@@ 20
jüngeren 20
krei@@ 20
chtet 20
pel@@ 20
labor 20
bär@@ 20
kranken@@ 20
banjo 20
ohr@@ 20
ppt 20
zer 20
tig 20
kopfhörern 20
go-@@ 20
soldat 20
zuschauermenge 20
ausgestreckten 20
hr@@ 20
hürde 20
tee 20
getränken 20
vorn 20
schnurrbart 20
scheinen 20
free 20
stöcken 20
laub@@ 20
orchester 20
digen 20
quarterback 20
ler@@ 20
wäsche 20
song 20
graffitis 20
schaft@@ 20
brust 20
gassi 20
umhang 20
malen 20
klavier 20
werk 20
aufführung 20
langhaariger 20
mö@@ 20
verschieden@@ 20
beutel 20
dert 20
ellen 20
halb 20
hugs 20
stier 20
wunderschönen 20
braun-@@ 20
schule 20
leggings 20
stet 20
geräten 20
heißen 20
hindernis 20
laster 20
cricket 20
ale 20
yoga 20
container 20
pil@@ 20
balance 20
sty@@ 20
fan 20
inten@@ 20
werfer 20
ischen 20
college 20
birthday 20
apple 20
material 20
pärchen 20
ahead 20
ard 20
ally 20
ry 20
machinery 20
wn 20
dish 20
hall 20
pull 20
but 20
loading 20
cleans 20
fruits 20
eight 20
tile 20
jumpsuit 20
carpet 20
groups 20
ced 20
figure 20
ear 20
jungle 20
action 20
mustache 20
motorcyclist 20
navy 20
long-sleeved 20
wire 20
craft 20
bars 20
patio 20
racetrack 20
fly 20
tool 20
sink 20
wide 20
policeman 20
headscarf 20
aged 20
speech 20
bathroom 20
turns 20
chase 20
guitars 20
viewing 20
sporting 20
boxing 20
herd 19
ften 19
klasse 19
typen 19
neon@@ 19
seilen 19
kerzen 19
gelände@@ 19
fern@@ 19
g-@@ 19
anlage 19
lied 19
einzelner 19
deln 19
teig 19
hell 19
füllt 19
nähmaschine 19
farm 19
erd@@ 19
städtische 19
blume 19
chte 19
schutzbrille 19
ribbon 19
aber 19
deck@@ 19
uf@@ 19
szene 19
wan@@ 19
ckigen 19
rudert 19
bowlingbahn 19
dia@@ 19
john 19
ßt 19
stehende 19
experiment 19
sion 19
beschäftigt 19
violettem 19
schmutzi@@ 19
fischer 19
wen@@ 19
vorrichtung 19
vorbeifährt 19
versch@@ 19
kegel 19
video@@ 19
kunstwerk 19
rosafarbenem 19
fr@@ 19
flughafen 19
füße 19
lampe 19
rü@@ 19
herum@@ 19
anlegestelle 19
füttert 19
volleyball@@ 19
flaschen 19
rubber 19
mann@@ 19
sho@@ 19
gitarrist 19
hula-hoop-reifen 19
und@@ 19
jeep 19
älteres 19
gelände 19
schaft 19
post@@ 19
let@@ 19
see@@ 19
k-@@ 19
chor 19
mädchens 19
stö@@ 19
treppen 19
nickerchen 19
direkt 19
spani@@ 19
spü@@ 19
za@@ 19
schaufenster@@ 19
knien 19
bauch 19
aben@@ 19
glo@@ 19
ey@@ 19
dy 19
baseballmütze 19
ziel 19
rede 19
sportveranstaltung 19
china 19
kam@@ 19
apartment 19
radfahrern 19
kro@@ 19
super@@ 19
er-@@ 19
bare 19
tze 19
dicht 19
greifen 19
falls 19
geb@@ 19
turban 19
angel 19
backstein@@ 19
stretching 19
belt 19
hän@@ 19
lit@@ 19
bor@@ 19
e-gitarre 19
lehrer 19
bern 19
torhüter 19
army 19
pilot 19
mall 19
lacrosse 19
cross@@ 19
bin 19
swe@@ 19
ance 19
coo@@ 19
fire@@ 19
space 19
bushes 19
beam 19
member 19
snow-covered 19
lane 19
ered 19
intersection 19
boardwalk 19
discussion 19
ming 19
case 19
ceiling 19
dge 19
baskets 19
swimmer 19
routine 19
fancy 19
cing 19
observe 19
beverage 19
stopped 19
narrow 19
atten@@ 19
bath 19
half 19
petting 19
great 19
indoors 19
shoot 19
dune 19
tents 19
hillside 19
dark-skinned 19
slides 19
eastern 19
neighborhood 19
crouching 19
cally 19
tattooed 19
possibly 19
leaving 19
herself 19
smoke 19
trumpet 19
medical 19
vendors 19
horseback 19
sells 19
maschinen 18
oli@@ 18
chts 18
spring 18
pick@@ 18
booten 18
ß 18
bä@@ 18
bowlingkugel 18
einkaufszentrum 18
aufzu@@ 18
halle 18
aufblasbaren 18
satz 18
schwimmbad 18
knie@@ 18
aufs 18
shi@@ 18
uts 18
geblümten 18
leit@@ 18
eltern 18
kariertem 18
clowns 18
han@@ 18
beine 18
pack 18
sportkleidung 18
trompete 18
wein 18
steinigen 18
rot@@ 18
ausstellung 18
ssenen 18
sicht@@ 18
rucksäcken 18
los 18
high-@@ 18
oping 18
dinge 18
afrikanischer 18
cal@@ 18
gewässers 18
ron@@ 18
bru@@ 18
amüsieren 18
angelrute 18
liegenden 18
socken 18
herunter@@ 18
a-@@ 18
kno@@ 18
strohhut 18
beißt 18
heu 18
schmuck 18
mechani@@ 18
ziel@@ 18
karten 18
fotografen 18
pack@@ 18
organi@@ 18
don@@ 18
fran@@ 18
blau-weißen 18
messer 18
them@@ 18
wett@@ 18
hinterhof 18
gewehr 18
mithilfe 18
ohren 18
schlagzeuger 18
lebensmittel@@ 18
kick@@ 18
schu@@ 18
u-bahn-@@ 18
bearbeitet 18
kaut 18
geschäfts@@ 18
för@@ 18
yer 18
marschiert 18
schwach 18
alen 18
schwarz-weiß 18
mau@@ 18
lachend 18
rennwagen 18
pper 18
metal@@ 18
handschuh 18
kette 18
berühren 18
regenschirmen 18
ffs 18
sau@@ 18
halb@@ 18
findet 18
cap@@ 18
keep 18
geschäften 18
formation 18
barri@@ 18
erte 18
finish 18
indi@@ 18
schein@@ 18
anhat 18
finger@@ 18
häusern 18
chefs 18
mountainbike 18
feuerwehrmänner 18
til@@ 18
histor@@ 18
got 18
batter 18
oper@@ 18
computers 18
conference 18
4@@ 18
que 18
heart 18
dead 18
mohawk 18
more 18
backs 18
entrance 18
saw 18
mixing 18
folding 18
card 18
helps 18
hospital 18
buy 18
fencing 18
bly 18
cans 18
clay 18
wheels 18
vil 18
celebrating 18
squatting 18
nets 18
excited 18
ornate 18
youth 18
uniformed 18
cardboard 18
pieces 18
outstretched 18
rela@@ 18
lay 18
shepherd 18
bottles 18
puppy 18
guitarist 18
cts 18
choir 18
funny 18
dishes 18
seats 18
buckets 18
ys 18
maroon 18
mostly 18
microphones 18
hüte 17
gehende 17
zeit@@ 17
grillen 17
sprung@@ 17
ente 17
schwenkt 17
krie@@ 17
jeans@@ 17
zeitschrift 17
rahmen 17
bestehende 17
motor 17
ka 17
blasen 17
blü@@ 17
haus@@ 17
fahne 17
mischer 17
flügeln 17
bet@@ 17
riesige 17
ed@@ 17
zäh@@ 17
tiere 17
körben 17
schweißt 17
giert 17
farbige 17
ari@@ 17
erer 17
zieren 17
waffe 17
zuge@@ 17
bälle 17
fenster@@ 17
schwarz-brauner 17
gol@@ 17
wissenschaft@@ 17
beigefarbenen 17
feuert 17
helme 17
saal 17
abendessen 17
sei@@ 17
graue 17
hei@@ 17
bluejeans 17
köpfen 17
trainer 17
flachen 17
sperr@@ 17
reicht 17
saxophon 17
packt 17
auszu@@ 17
schrei@@ 17
jüngere 17
sandstrand 17
kurs 17
dunkelblauen 17
fahrgeschäft 17
griff 17
hochzeit 17
cki@@ 17
jack@@ 17
gespräch 17
klettergerüst 17
flüssigkeit 17
drachen 17
grau@@ 17
jahrmarkt 17
wunder@@ 17
ob@@ 17
cher@@ 17
fröh@@ 17
picknicktisch 17
boxen 17
stufe 17
medi@@ 17
lle 17
kameras 17
tier@@ 17
äl@@ 17
stab 17
dj 17
fegt 17
blu@@ 17
ca 17
feuerwehrmann 17
elle 17
bum@@ 17
wagens 17
outdoor-@@ 17
star 17
patient 17
haarige 17
bau 17
platte 17
football-@@ 17
offenbar 17
tiger 17
daneben 17
transpor@@ 17
gli@@ 17
spielkleidung 17
gegenseitig 17
factory 17
ce-@@ 17
geländemotorradfahrer 17
bron@@ 17
engine 17
roller-@@ 17
sel 17
wheelie 17
backsteingebäude 17
kopfüber 17
str@@ 17
rings 17
dreck 17
para@@ 17
blazer 17
stat@@ 17
hoops 17
castle 17
ments 17
reflective 17
dire@@ 17
sword 17
flipping 17
doctor 17
pan 17
cla@@ 17
stack 17
cuts 17
ght 17
leading 17
sleeveless 17
fisherman 17
stroll 17
doors 17
rink 17
pick 17
bear 17
rural 17
blows 17
tered 17
spraying 17
vegetable 17
firetruck 17
rough 17
tly 17
bowls 17
pine 17
cloth@@ 17
polka 17
item 17
grinding 17
ethnic 17
float 17
stripes 17
stares 17
zing 17
library 17
unds 17
inspecting 17
comfor@@ 17
calf 17
broom 17
coloring 17
smokes 17
spinning 17
scenery 17
ctors 17
furniture 17
hair@@ 17
storefront 17
ates 17
entlang@@ 16
geldbörse 16
ette 16
körper 16
sportwagen 16
gern 16
waschen 16
hinunter@@ 16
zug@@ 16
pfan@@ 16
operation 16
köche 16
paddeln 16
druck 16
farbenfroher 16
jeansjacke 16
team@@ 16
mes 16
brandung 16
brief@@ 16
kilt 16
reinigen 16
fels@@ 16
stöcke 16
baby@@ 16
rollt 16
lern 16
einzel@@ 16
wand@@ 16
vorne 16
sicht 16
drückt 16
büro@@ 16
feld@@ 16
bunt 16
bon@@ 16
musi@@ 16
wandern 16
planscht 16
stangen 16
welpen 16
gleisen 16
arbeits@@ 16
treibt 16
gelb@@ 16
schwer@@ 16
wasserflasche 16
computer@@ 16
pflü@@ 16
schlafanzug 16
köpfige 16
cape 16
geschäftskleidung 16
dunkelhaariger 16
sanddüne 16
ttern 16
mittag 16
koch@@ 16
bekommen 16
catcher 16
hor@@ 16
kir@@ 16
frisbeescheibe 16
kli@@ 16
techni@@ 16
arch@@ 16
sprüh@@ 16
br@@ 16
sängerin 16
führung 16
noch 16
ation@@ 16
zone 16
hö@@ 16
wirbelt 16
bewölkten 16
grimasse 16
ken@@ 16
pun@@ 16
waschsalon 16
ll@@ 16
beleuchtung 16
times 16
herr@@ 16
verlassen 16
war 16
fußballfeld 16
plat@@ 16
flöte 16
parkt 16
schmetter@@ 16
kurz@@ 16
leicht 16
cli@@ 16
pt 16
my 16
wife 16
rasi@@ 16
dose 16
begutachtet 16
ets 16
kni@@ 16
wettrennen 16
kalb 16
dam@@ 16
herab 16
schö@@ 16
expre@@ 16
setz@@ 16
kugel 16
bunter 16
bild@@ 16
tigt 16
rod 16
bahnhof 16
lat@@ 16
ele@@ 16
rennauto 16
entspannen 16
statt 16
ballon 16
trainieren 16
jubeln 16
untersuchen 16
ado@@ 16
straßenhändler 16
grasfläche 16
iel@@ 16
khaki@@ 16
que@@ 16
wn@@ 16
red@@ 16
marschieren 16
name 16
paint@@ 16
cool 16
skateboard@@ 16
badewanne 16
händler 16
turnerin 16
jockeys 16
story 16
skil@@ 16
care 16
ator 16
ford 16
trucks 16
cru@@ 16
elephant 16
come 16
downtown 16
ence 16
tied 16
broken 16
candles 16
duck 16
approaching 16
intently 16
sweat@@ 16
chalk 16
ures 16
spread 16
crane 16
act 16
parents 16
il 16
discussing 16
emergency 16
motorbike 16
barrel 16
houses 16
raises 16
fluffy 16
gui@@ 16
folded 16
balding 16
starting 16
lamp 16
balances 16
fix 16
nighttime 16
television 16
jewelry 16
instru@@ 16
kite 16
stairway 16
ral 16
overhead 16
plates 16
following 16
reach 16
ward 16
turned 16
gymnasium 16
rainy 16
carving 16
sides 16
tain 16
pigeons 16
lifting 16
objects 16
clad 16
surrounding 16
naked 16
speed 16
listens 16
ballet@@ 15
hrt 15
farb@@ 15
gend 15
festhält 15
drei@@ 15
schei@@ 15
büschen 15
tal@@ 15
kie 15
zöpfen 15
cker@@ 15
esel 15
eingezäunten 15
starren 15
motorroller 15
wald@@ 15
dazu 15
diskutieren 15
p-@@ 15
dum@@ 15
vorüber 15
werkstatt 15
fernglas 15
zahlreiche 15
wur@@ 15
ufer@@ 15
schieben 15
schubkarre 15
ün@@ 15
näht 15
schaufenster 15
vielleicht 15
leu@@ 15
einrad 15
schotter@@ 15
hinein 15
löffel 15
bier@@ 15
zeugen 15
grau-@@ 15
farbenes 15
teaching 15
braun-schwarzer 15
ini@@ 15
turner 15
augen@@ 15
bespritzt 15
flur 15
gele@@ 15
gleichen 15
keit 15
fisch@@ 15
afro@@ 15
lange 15
motorräder 15
spaziergang 15
gefüllt 15
kletter@@ 15
vögel 15
baumes 15
inn@@ 15
schau 15
waldweg 15
kaffee@@ 15
kapuze 15
beln 15
stücke 15
sig@@ 15
sst 15
trock@@ 15
palmen 15
ziegelmauer 15
tä@@ 15
putzen 15
stil 15
sten@@ 15
pinata 15
flan@@ 15
bietet 15
mountain@@ 15
bückt 15
black@@ 15
felsen@@ 15
zahn@@ 15
schilder 15
aufnahme 15
konstruktion 15
förmigen 15
orangefarbene 15
pira@@ 15
wendet 15
cheerleader@@ 15
iter 15
freiluft@@ 15
mittagessen 15
suchen 15
fallschirm 15
dach@@ 15
rug 15
hochzeits@@ 15
braun@@ 15
tö@@ 15
fußgängerüberweg 15
versammlung 15
pum@@ 15
tennisspielerin 15
polo@@ 15
lounge 15
weihnachts@@ 15
neu@@ 15
pft 15
überprüft 15
frisur 15
beam@@ 15
weg@@ 15
nack@@ 15
profession@@ 15
stirn 15
kleidungs@@ 15
logo 15
ruhigen 15
afroamerikaner 15
schlitt@@ 15
baseballspiel 15
dig 15
hoben 15
gewändern 15
näh@@ 15
blumenmuster 15
maulkorb 15
runter 15
nah 15
engen 15
teenageralter 15
tack@@ 15
tribüne 15
pass@@ 15
sna@@ 15
dru@@ 15
usa 15
blau@@ 15
caps 15
fs 15
ey 15
lar@@ 15
sommer@@ 15
feiert 15
hoo@@ 15
test 15
bewundert 15
ggy 15
uti@@ 15
zeichnung 15
monument 15
verkleidete 15
eishockeyspieler 15
verlässt 15
schri@@ 15
shel@@ 15
hug 15
ll 15
parasailing 15
lasso 15
6@@ 15
grand@@ 15
oranges 15
xes 15
violine 15
sprinkler 15
sprinkl@@ 15
scheinbar 15
blin@@ 15
world 15
schwarzwei@@ 15
converse 15
ties 15
vel@@ 15
point 15
biking 15
shovels 15
hits 15
security 15
-like 15
odd 15
comple@@ 15
numerous 15
flowered 15
unicycle 15
lounging 15
directions 15
amongst 15
swimmers 15
control 15
tle 15
redheaded 15
called 15
white-@@ 15
protesting 15
participate 15
pea@@ 15
branch 15
pottery 15
whi@@ 15
ving 15
raising 15
terrain 15
repair 15
zed 15
wrestle 15
shaved 15
necklace 15
teammate 15
partially 15
oc@@ 15
engaged 15
headband 15
observing 15
forward 15
smaller 15
thin 15
blow 15
ssing 15
barber 15
follows 15
newborn 15
photos 15
ssed 15
electronic 15
tch 15
cameras 15
present 15
-down 15
fireman 15
village 15
liquid 15
&apos;t 15
advertising 15
crosses 15
relax 15
wings 15
papers 15
cut@@ 15
corn 15
beneath 15
shades 15
rande 14
gleichzeitig 14
kunststoff@@ 14
spielzeug-@@ 14
ertes 14
neue 14
farbene 14
brillen 14
zubereitet 14
mitglied 14
turm 14
fahrzeuge 14
stellung 14
grimassen 14
schaufeln 14
lichem 14
pony 14
rothaariges 14
kur@@ 14
bändern 14
kindes 14
karten@@ 14
bauarbeiten 14
tief@@ 14
glatzköpfiger 14
brauen 14
by-@@ 14
dekorati@@ 14
laden@@ 14
jubelt 14
sche@@ 14
sbe@@ 14
spritzen 14
karussell 14
stei@@ 14
bett@@ 14
gras@@ 14
afroamerikanische 14
sessel 14
mischen 14
ton 14
trommeln 14
wärts 14
bücher@@ 14
khakifarbenen 14
ney 14
ofen 14
busses 14
essens@@ 14
netze 14
nächsten 14
achterbahn 14
unterschied@@ 14
ue 14
entlanggeht 14
webt 14
rosafarbene 14
indischer 14
ländlichen 14
hafen@@ 14
tüte 14
softball@@ 14
marine@@ 14
filmt 14
vorbeigeht 14
sprüht 14
drinnen 14
lockigen 14
gemüse@@ 14
karton 14
schaukeln 14
spre@@ 14
sit@@ 14
schmutz 14
seh@@ 14
silber@@ 14
taucher 14
schreiben 14
bus@@ 14
schirme 14
beanie 14
street@@ 14
stol@@ 14
leinwand 14
gürtel 14
tür@@ 14
schulkinder 14
fahrrads 14
hil@@ 14
intervie@@ 14
demonstration 14
sat@@ 14
collie 14
beginnt 14
stirnband 14
rosafarbener 14
entertain@@ 14
glei@@ 14
klatscht 14
gestreiftes 14
stehender 14
folgen 14
ite@@ 14
passenden 14
teten 14
america 14
tüten 14
tätowi@@ 14
en-@@ 14
gy@@ 14
khakis 14
bibliothek 14
neugeborenes 14
grund@@ 14
geschen@@ 14
treiben 14
tun@@ 14
hier 14
tarn@@ 14
hotdog 14
etten 14
einsamer 14
tete 14
landet 14
twir@@ 14
fahrzeugs 14
tauben 14
monopoly 14
uhr 14
ligen 14
blau-gelben 14
aqu@@ 14
lager@@ 14
teilweise 14
deckt 14
hochge@@ 14
bewegen 14
dding 14
lobby 14
kamel@@ 14
gest@@ 14
aussehenden 14
struktur 14
kleider 14
stürzt 14
rist@@ 14
produkte 14
gei@@ 14
ameri@@ 14
oberfläche 14
haarigen 14
ren 14
reifenschaukel 14
zusammenge@@ 14
gebeugt 14
paddle 14
farbenfro@@ 14
vorüber@@ 14
häu@@ 14
holen 14
pferde@@ 14
8@@ 14
akustikgitarre 14
gera@@ 14
klassenraum 14
tracht 14
rettungswesten 14
modern 14
? 14
moti@@ 14
11 14
noti@@ 14
figuren 14
tal 14
target 14
gle 14
snowboardfahrer 14
flips 14
verdeckt 14
rennens 14
regi@@ 14
monitor 14
tackle 14
ora@@ 14
wrestler 14
mic 14
# 14
asiatinnen 14
listen 14
aquarium 14
gegner 14
thedra@@ 14
wild 14
multi@@ 14
nam@@ 14
love 14
dough 14
skul@@ 14
tea 14
xi@@ 14
dad 14
char@@ 14
shine 14
science 14
tomat@@ 14
own 14
east 14
rainbow 14
shakes 14
whilst 14
binoculars 14
billboard 14
steel 14
spon@@ 14
donkey 14
silly 14
skiers 14
repairs 14
job 14
cook 14
athletes 14
fake 14
push 14
shining 14
spo@@ 14
shops 14
carry 14
book@@ 14
trailer 14
weaving 14
scarves 14
oes 14
mmed 14
slee@@ 14
casual 14
share 14
tower 14
ages 14
cobblestone 14
trunk 14
eling 14
firemen 14
oms 14
wading 14
conven@@ 14
calm 14
splashes 14
interacting 14
guns 14
straight 14
tted 14
gift 14
cards 14
machines 14
upon 14
mid 14
receiving 14
most 14
peering 14
slightly 14
rows 14
crafts 14
airborne 14
pretty 14
guards 14
pillow 14
passenger 14
photographed 14
stic 14
glove 14
ily 14
yed 14
leads 14
aisle 14
camel 14
races 14
charac@@ 14
homeless 14
performers 14
admiring 14
hotdogs 13
kunstwerke 13
gelen@@ 13
chs 13
pt@@ 13
abends 13
meeres 13
schwert 13
feuerwehrleute 13
arzt 13
bedeck@@ 13
rö@@ 13
es@@ 13
promenade 13
tut 13
schne@@ 13
elefanten 13
hänge@@ 13
tten 13
musli@@ 13
strickmütze 13
kettensäge 13
stehend 13
wange 13
geschi@@ 13
mülltonne 13
lernt 13
gerä@@ 13
oran@@ 13
computerbildschirm 13
wandt 13
schutz 13
itä@@ 13
geparkten 13
pfer@@ 13
hocker 13
boss 13
motocross-@@ 13
regal 13
unterwäsche 13
bb@@ 13
leucht@@ 13
im@@ 13
spla@@ 13
schienen 13
handschuhe 13
streich@@ 13
bürger@@ 13
maler 13
ssage 13
schnur 13
reg@@ 13
asien 13
türen 13
stühle 13
marktplatz 13
fingern 13
gesichtsbemalung 13
erung 13
pfen 13
dreh@@ 13
gefüllten 13
liert 13
9 13
ohr 13
welpe 13
früchte 13
stap@@ 13
unbefestigte 13
barfüßige 13
gelt 13
cowboy@@ 13
pistole 13
kies 13
floß 13
rafting 13
inform@@ 13
spazier@@ 13
kau@@ 13
einzu@@ 13
altes 13
tur 13
zeug@@ 13
waschbecken 13
dünn@@ 13
gehender 13
10 13
schwarz@@ 13
bühnen@@ 13
diri@@ 13
alt@@ 13
mop@@ 13
zes 13
gemu@@ 13
gemacht 13
gender 13
seiten@@ 13
verheiratetes 13
fass 13
wohl 13
halstuch 13
plastiktüte 13
u-bahn-station 13
gelassen 13
lage 13
gestikuliert 13
menschen@@ 13
papiere 13
langhaarige 13
markt@@ 13
ständer 13
us@@ 13
mini@@ 13
kasten 13
leckt 13
locken 13
bereit@@ 13
vorbereitet 13
fallschirm@@ 13
gebaut 13
schuss 13
nie@@ 13
hüpfen 13
inspi@@ 13
last@@ 13
laufbahn 13
spei@@ 13
tha@@ 13
ozean 13
rauch 13
hindurch 13
bündel 13
ou@@ 13
buffet 13
wind 13
ktem 13
verti@@ 13
tie@@ 13
hart 13
man-@@ 13
company 13
patro@@ 13
schlu@@ 13
frü@@ 13
flu@@ 13
meeres@@ 13
bilden 13
ansicht 13
boote 13
streicht 13
enten 13
doll 13
cool@@ 13
kitt@@ 13
tter 13
tänzerin 13
film@@ 13
bell@@ 13
retrie@@ 13
aufmerksam 13
samen 13
screaming 13
lebensmittelgeschäft 13
sowie 13
gewickelt 13
entre@@ 13
schä@@ 13
säulen 13
pult 13
lips 13
bandana 13
kna@@ 13
cup@@ 13
fänger 13
profi@@ 13
button@@ 13
lon@@ 13
pflanze 13
pink@@ 13
bela@@ 13
wü@@ 13
bull@@ 13
viertel 13
bricht 13
luft@@ 13
vil@@ 13
läuferin 13
elmo 13
manche 13
ruhen 13
pflasterstraße 13
auditorium 13
tat@@ 13
ai@@ 13
olympischen 13
sno@@ 13
stimm@@ 13
off-@@ 13
modell@@ 13
sung 13
surfen 13
attra@@ 13
teen 13
basketballspiel 13
soda 13
diver 13
ic@@ 13
fetti 13
still 13
kayaks 13
mul@@ 13
ol 13
exam@@ 13
chan@@ 13
tv 13
venue 13
pop@@ 13
wra@@ 13
inlineskates 13
leotard 13
co 13
observes 13
spotted 13
studying 13
some@@ 13
tropical 13
four@@ 13
paddles 13
tending 13
dusk 13
knit 13
chainsaw 13
check 13
customer 13
messy 13
carts 13
wheelbarrow 13
nature 13
tail 13
landing 13
spoon 13
waterway 13
ther 13
ones 13
cle@@ 13
tires 13
order 13
oven 13
burgundy 13
coaster 13
examines 13
craw@@ 13
debris 13
farmer 13
eggs 13
sks 13
praying 13
stance 13
ents 13
ines 13
attention 13
autumn 13
drill 13
flute 13
if 13
stomach 13
filling 13
places 13
bystanders 13
consisting 13
cups 13
checks 13
entering 13
groceries 13
greyhound 13
lifted 13
telephone 13
barrier 13
waterfront 13
official 13
comes 13
ceremony 13
meeting 13
similar 13
dimly 13
cheer 13
bleachers 13
enter@@ 13
overweight 13
sailing 13
keys 13
browsing 13
headed 13
sneakers 13
lead 13
gestures 13
ansieht 12
sam 12
schwebt 12
klar@@ 12
noten@@ 12
stin 12
mcdonald 12
won@@ 12
sandigen 12
dor@@ 12
treppenstufen 12
männliches 12
hnen 12
bam@@ 12
schale 12
schlafen@@ 12
restaurant@@ 12
stahl@@ 12
taucher@@ 12
län@@ 12
kreuz 12
warn@@ 12
feder@@ 12
lila@@ 12
hinderni@@ 12
tour 12
lk@@ 12
jackett 12
uren 12
benen 12
schmi@@ 12
stroh@@ 12
komp@@ 12
mmen 12
weihna@@ 12
zel@@ 12
zeuge 12
c-@@ 12
badeanzügen 12
öl@@ 12
zeug 12
zurück@@ 12
herumstehen 12
terrier 12
kti@@ 12
pfe 12
stän@@ 12
rot-weiß-@@ 12
aussehen 12
schnitt 12
wassers 12
hemd@@ 12
anhänger 12
ausgestellt 12
aufgestellt 12
schneeanzug 12
person@@ 12
wake@@ 12
boarding 12
gesp@@ 12
gericht 12
hunder@@ 12
selbst 12
gehör@@ 12
sla@@ 12
baren 12
kümmert 12
nebel 12
sprungbrett 12
videospiel 12
grö@@ 12
ord@@ 12
gäste 12
tiert 12
rennfahrer 12
range 12
golfball 12
rosa-@@ 12
mischt 12
schlag@@ 12
knall@@ 12
breakdance 12
vergnügungspark 12
geschla@@ 12
barfüßi@@ 12
arch 12
mä@@ 12
spit@@ 12
schlaf@@ 12
wegs 12
fischer@@ 12
keln 12
rutschen 12
computern 12
zement 12
motorrad@@ 12
bit 12
radio 12
geöffneten 12
schafe 12
design 12
gipfel 12
weit@@ 12
appar@@ 12
artigen 12
halt 12
olo@@ 12
sü@@ 12
saiten@@ 12
einfahrt 12
schwimmweste 12
schüsseln 12
türki@@ 12
boarder 12
herbst@@ 12
tarnkleidung 12
pfo@@ 12
ley 12
schü@@ 12
gemein@@ 12
gle@@ 12
stie@@ 12
braun-weiße 12
neh@@ 12
glänzenden 12
reihen 12
tablett 12
gegenständen 12
train@@ 12
dudelsack 12
cola 12
kasse 12
erter 12
schlei@@ 12
vorstellung 12
bewegungen 12
-schild 12
schnüffelt 12
betonwand 12
dü@@ 12
hn 12
arbeitern 12
chinesi@@ 12
traditionellen 12
blockt 12
tü@@ 12
st. 12
weil 12
präsentation 12
passt 12
hen@@ 12
professor 12
interess@@ 12
badezimmer 12
gerin 12
verschneite 12
deren 12
tätowierungen 12
pudel 12
steu@@ 12
spielerisch 12
mmt 12
auslage 12
maschendrahtzaun 12
gal@@ 12
fru@@ 12
schnitzt 12
fair@@ 12
gende 12
prüft 12
klaren 12
ach 12
ong 12
blocken 12
wir 12
tische 12
tätowierung 12
statt@@ 12
schat@@ 12
gestreifter 12
leitung 12
stößt 12
herz@@ 12
cken@@ 12
freundin 12
trocken@@ 12
offi@@ 12
hundes 12
chel@@ 12
trainingsanzug 12
ssel 12
trauri@@ 12
dunklem 12
mixer 12
teile 12
strauß 12
hä@@ 12
boot@@ 12
tem@@ 12
werbe@@ 12
olympi@@ 12
zügen 12
ham 12
kreide 12
heißluftballon 12
cho@@ 12
broch@@ 12
kör@@ 12
deli@@ 12
einhei@@ 12
ling@@ 12
stand@@ 12
betrie@@ 12
lie 12
mountainbiker 12
repor@@ 12
waffel 12
walmart 12
druck@@ 12
dorf 12
schleife 12
afri@@ 12
watet 12
nieder 12
turnier 12
tutu 12
mou@@ 12
amerikanischer 12
high@@ 12
satz@@ 12
sonnenschirm 12
ke-@@ 12
hula-hoop 12
hellhäutige 12
fontäne 12
down@@ 12
lers 12
brenn@@ 12
jenga 12
zombi@@ 12
mil@@ 12
obst@@ 12
modi@@ 12
rollerskates 12
ckens 12
bea@@ 12
mix@@ 12
genommen 12
gesichtern 12
tt 12
halt@@ 12
köpfe 12
popcorn 12
sele@@ 12
bikinis 12
schnell@@ 12
paare 12
ck-@@ 12
parcours 12
show@@ 12
stall 12
ag@@ 12
begleitet 12
bemalten 12
cri@@ 12
ringer 12
are@@ 12
beisammen 12
mikrof@@ 12
graph@@ 12
ta 12
bräun@@ 12
cakes 12
ox@@ 12
arcade 12
padd@@ 12
ultimate 12
scre@@ 12
designs 12
quad 12
gent@@ 12
knöpfen 12
dress@@ 12
recei@@ 12
termin@@ 12
ies 12
play@@ 12
scouts 12
cycling 12
fashioned 12
bra 12
coun@@ 12
jet 12
oranger 12
burning 12
nee@@ 12
sive 12
pat@@ 12
ow@@ 12
tackling 12
viol@@ 12
ballet 12
bamboo 12
bricks 12
pigtails 12
scooters 12
feath@@ 12
paperwork 12
iron 12
chicken 12
load 12
give 12
boulder 12
presenting 12
wires 12
comm@@ 12
rickshaw 12
thumbs 12
clapping 12
exhibit 12
teal 12
covers 12
heading 12
puppies 12
gymnastics 12
shadows 12
tired 12
cooks 12
merchandise 12
far 12
ities 12
countryside 12
blankets 12
mming 12
newly 12
seem 12
touches 12
games 12
highway 12
bite 12
dust 12
iting 12
shoppers 12
repairing 12
dering 12
placing 12
tray 12
bagpipes 12
cti@@ 12
wares 12
alleyway 12
handing 12
visiting 12
patterned 12
knife 12
spanish 12
stare 12
drive 12
serves 12
wrap 12
pillows 12
parachut@@ 12
rollerblading 12
inspects 12
stops 12
suitcase 12
long-sleeve 12
sweeps 12
newspapers 12
complete 12
tossing 12
forehead 12
visible 12
olympics 12
atta@@ 12
movie 12
lecture 12
exercise 12
ously 12
knees 12
attending 12
biting 12
tape 12
blur@@ 12
beverages 12
accompani@@ 12
applying 12
excit@@ 12
umpire 12
juice 12
been 12
shirted 12
skaters 12
snowsuit 12
viel@@ 11
gefle@@ 11
freizeit@@ 11
lieferwagen 11
chteten 11
kleinkinder 11
seltsamen 11
herren 11
ampel 11
stal@@ 11
grün@@ 11
heit 11
wohner 11
örtlichen 11
hohe 11
händchen 11
eini@@ 11
schütteln 11
gesehen 11
schar@@ 11
flauschiger 11
dunkelten 11
hamburger 11
feu@@ 11
pfanne 11
kopfschmuck 11
kal@@ 11
unterricht 11
geländewagen 11
ähnlichen 11
fußballdress 11
kollegen 11
vorführung 11
mobil@@ 11
mädchen@@ 11
jüngerer 11
skateboard-@@ 11
grills 11
gebü@@ 11
zoo 11
eben@@ 11
prin@@ 11
kran 11
sammeln 11
präsentiert 11
männlichen 11
fecht@@ 11
wä@@ 11
schild@@ 11
holzbank 11
verkaufsstand 11
leuchtenden 11
verwenden 11
misch@@ 11
ky 11
klat@@ 11
töpfer@@ 11
bekleideter 11
cel@@ 11
gesen@@ 11
miniat@@ 11
brettspiel 11
grill@@ 11
japanischen 11
rie@@ 11
nachbar@@ 11
rückwärts 11
yel@@ 11
ige 11
freude 11
bir@@ 11
jean@@ 11
recht 11
pferdeschwanz 11
tomaten 11
hot@@ 11
gurt 11
dir@@ 11
jugendlichen 11
serviert 11
bekleidete 11
kop@@ 11
puppen 11
weiter 11
langärmeligen 11
rollen 11
ethni@@ 11
uchen 11
papp@@ 11
sicherheits@@ 11
schachtel 11
fußgängern 11
unterschiedlichen 11
wasch@@ 11
skyline 11
plüsch@@ 11
bordstein 11
leben@@ 11
dit@@ 11
fischt 11
schlagmann 11
erklimmen 11
surf@@ 11
hle 11
afroamerikanischer 11
kun@@ 11
formt 11
gerichtet 11
entgegen@@ 11
mittelalter@@ 11
jeder 11
mark 11
portrait 11
blood 11
gescho@@ 11
babys 11
wette 11
toilet@@ 11
pä@@ 11
spielplatz@@ 11
verteilt 11
indem 11
hol 11
stiefel 11
orientalische 11
arme@@ 11
sprecher 11
oberen 11
entgegen 11
kenn@@ 11
gew@@ 11
wasserrutsche 11
ausdruck 11
zugs 11
sser 11
säule 11
ssel@@ 11
wakeboard 11
feuerwehrauto 11
männer@@ 11
fort 11
budd@@ 11
iti@@ 11
hoher 11
eimern 11
füllen 11
freun@@ 11
befin@@ 11
streichen 11
ander@@ 11
blätter@@ 11
stens 11
türöffnung 11
sack@@ 11
besteht 11
drän@@ 11
ctor 11
aller 11
säugling 11
verkehrs@@ 11
reichen 11
lebensmitteln 11
straßenverkäufer 11
hafen 11
fron@@ 11
eller 11
teilnehmer 11
weihnachtsmann@@ 11
schneeh@@ 11
rodeo-@@ 11
namen 11
säge 11
früh@@ 11
steg 11
gesprungen 11
telefon@@ 11
spärlich 11
drängt 11
schlauchboot 11
reit@@ 11
stür@@ 11
segel@@ 11
lou@@ 11
tran@@ 11
kleineren 11
kostüme 11
überall 11
auge 11
obststand 11
übungen 11
gesäum@@ 11
rauch@@ 11
süßigkeiten 11
lum@@ 11
zunehmen 11
leap 11
wunderschöne 11
japan@@ 11
braunhaariger 11
frauen@@ 11
hispani@@ 11
ig 11
übung 11
zelt@@ 11
positi@@ 11
zahl 11
ertem 11
schem 11
möglicherweise 11
strecken 11
japan 11
vorderseite 11
snacks 11
kerle 11
darbietung 11
seattle 11
gepunkteten 11
stützt 11
beige@@ 11
ils 11
urein@@ 11
laborkittel 11
dritte 11
bekleidet 11
pinkfarbener 11
abgeworfen 11
schnei@@ 11
einkaufstasche 11
sparring 11
tzt 11
kol@@ 11
pon@@ 11
kühl@@ 11
swimmingpool 11
explo@@ 11
sims 11
rechte 11
skat@@ 11
erende 11
touch 11
schwester 11
schot@@ 11
jun@@ 11
workout 11
transportiert 11
bmx-fahrer 11
richtungen 11
dung 11
diti@@ 11
innenstadt 11
o-@@ 11
kittel 11
löschen 11
weihnachtsmann 11
militäri@@ 11
ticket 11
treppen@@ 11
mt 11
sil@@ 11
miami 11
stati@@ 11
hallen@@ 11
vol@@ 11
punkt 11
sl@@ 11
turnschuhen 11
eiscreme 11
ee 11
power 11
sem@@ 11
kings 11
tuni@@ 11
ponch@@ 11
ließt 11
verla@@ 11
ipod 11
ware 11
liege@@ 11
zebra@@ 11
bulldozer 11
7 11
silberfarbenen 11
mop 11
bend 11
politi@@ 11
hit@@ 11
marathon@@ 11
film 11
ols 11
diner 11
ckets 11
ddy 11
cy 11
hum@@ 11
bouquet 11
morning 11
row@@ 11
arri@@ 11
fore@@ 11
acti@@ 11
kit@@ 11
state 11
link 11
thers 11
artwork 11
patch 11
camping 11
trip 11
picks 11
lighted 11
magazines 11
assem@@ 11
constru@@ 11
elev@@ 11
hur@@ 11
cheek 11
suspenders 11
learning 11
shoreline 11
wning 11
dusty 11
weap@@ 11
traveling 11
underwear 11
placed 11
injured 11
adjusting 11
maneu@@ 11
loo@@ 11
ways 11
african-american 11
rapids 11
ponytail 11
larger 11
firefighter 11
logs 11
chatting 11
carefully 11
chess 11
eglasses 11
washer 11
kayaking 11
teens 11
tiny 11
printed 11
rollerskating 11
backdrop 11
swimsuits 11
strange 11
tricycle 11
laundromat 11
creek 11
location 11
alling 11
sunlight 11
loom 11
speak 11
record 11
department 11
mid-@@ 11
rice 11
posed 11
gathers 11
adv@@ 11
poor 11
ations 11
weather 11
floats 11
leaf 11
finished 11
drib@@ 11
parachute 11
yarn 11
motorcyclists 11
practices 11
watched 11
turquoise 11
descent 11
dives 11
opens 11
black-haired 11
sty 11
haired 11
scape 11
stle 11
planting 11
ddle 11
passersby 11
crouched 11
mug 11
asians 11
tights 11
snowshoes 11
lifts 11
unk 11
cage 11
wered 11
playfully 11
mower 11
involved 11
dot 11
roun@@ 11
rally 11
nail 11
meet 11
med 11
motorized 11
oned 11
crossed 11
couples 11
celebration 11
surgery 11
enthusia@@ 11
trolley 11
supplies 11
fashion 11
closely 11
drawn 11
focused 11
torch 11
bauwerk 10
du 10
kartons 10
picknick@@ 10
kurze 10
verkauf@@ 10
ausflug 10
loh@@ 10
öffent@@ 10
nasser 10
labra@@ 10
dor 10
wanne 10
afrikanischen 10
violett 10
strahl@@ 10
luftballon 10
schür@@ 10
erdhügel 10
kräfte 10
wet@@ 10
dut@@ 10
hren 10
klappstuhl 10
dämmerung 10
motorhaube 10
frisbee-scheibe 10
reparat@@ 10
schlendert 10
schneit 10
bö@@ 10
eisenbahn@@ 10
hochzu@@ 10
op-@@ 10
krankenhaus 10
grube 10
athle@@ 10
lings 10
schutzausrüstung 10
kom@@ 10
hills 10
arran@@ 10
stelzen 10
stolz 10
ärmello@@ 10
fasst 10
staubigen 10
erreichen 10
kampfsport@@ 10
progra@@ 10
zucker@@ 10
sper@@ 10
größeren 10
dosen 10
stelle 10
lerin 10
billard 10
bindet 10
erle@@ 10
natur@@ 10
brüne@@ 10
eil 10
unordentlichen 10
fische 10
verletz@@ 10
talent 10
menschenansammlung 10
iner 10
hawai@@ 10
i-@@ 10
burgunder@@ 10
nächt@@ 10
stur@@ 10
wolken 10
kür@@ 10
bikini-@@ 10
ausgestreckt 10
mülleimer 10
flei@@ 10
lung 10
sie@@ 10
verk@@ 10
herkunft 10
aufgeregt 10
mast 10
einfa@@ 10
lagerfeuer 10
hren@@ 10
hr 10
maul@@ 10
namens 10
namensschild 10
mark@@ 10
open-@@ 10
gradu@@ 10
saun@@ 10
entfernung 10
gehenden 10
verzierten 10
rut@@ 10
ität 10
mega@@ 10
robo@@ 10
schie@@ 10
schlü@@ 10
baseballschläger 10
clu@@ 10
nen@@ 10
aneinander 10
zeich@@ 10
schna@@ 10
lachende 10
farbiger 10
spider@@ 10
niedrigen 10
ruhigem 10
ält 10
öffentlichkeit 10
spiele 10
kurzem 10
anzeige 10
verbun@@ 10
kabine 10
fte 10
schlan@@ 10
mm 10
ktion@@ 10
intere@@ 10
gitarren 10
eingeschlafen 10
halskette 10
zylinder 10
dreirad 10
abgebildet 10
vergnügt 10
qui@@ 10
perlen 10
befesti@@ 10
regenbogen@@ 10
lächelnden 10
asphalt 10
ty@@ 10
ebenfalls 10
teppi@@ 10
trifft 10
webstuhl 10
obdachloser 10
körper@@ 10
zement@@ 10
wehren 10
kauert 10
geschnitten 10
soll 10
sko@@ 10
bevor 10
la 10
pel 10
fitness@@ 10
entu@@ 10
dlichen 10
kraft 10
stellten 10
skol@@ 10
friseur 10
orche@@ 10
fabrik 10
schwingen 10
kastanien@@ 10
angebracht 10
regnerischen 10
engel 10
kö@@ 10
the@@ 10
vortrag 10
meisten 10
ät 10
wanderweg 10
ang 10
unteren 10
start@@ 10
fächer 10
schminkt 10
au 10
wilden 10
zigar@@ 10
rollern 10
mcdonalds 10
stiften 10
in-@@ 10
braut@@ 10
beleu@@ 10
leger 10
neten 10
fremden 10
ungewöhnlichen 10
hüpf@@ 10
burg 10
gie 10
landstraße 10
kratzt 10
gegen@@ 10
angeboten 10
angemal@@ 10
pflan@@ 10
oren 10
grü@@ 10
ziegelwand 10
val 10
eten 10
prie@@ 10
gefolgt 10
chips 10
swagen 10
ien 10
hüb@@ 10
gitarristen 10
bildern 10
bergsteiger 10
zz@@ 10
axt 10
notebook 10
schneeschuhen 10
coca-@@ 10
letz@@ 10
nor@@ 10
sieg 10
potato 10
ziellinie 10
sterten 10
käfig 10
bildes 10
fertigen 10
tackelt 10
ssaal 10
lets 10
übergewichtiger 10
seni@@ 10
arabi@@ 10
krü@@ 10
musikgruppe 10
ko 10
schutzkleidung 10
erzeugnisse 10
pool@@ 10
windhund 10
ston@@ 10
llen 10
00@@ 10
konferenz 10
trans@@ 10
rettung@@ 10
those 10
sicherheit@@ 10
on-@@ 10
roo@@ 10
kari@@ 10
zauns 10
zo@@ 10
unterrichtet 10
freizeitpark 10
cyc@@ 10
identi@@ 10
amüsiert 10
geschäf@@ 10
fröhlich 10
interagi@@ 10
läufern 10
rücksitz 10
spongebo@@ 10
holzboden 10
herrn 10
put@@ 10
reini@@ 10
trink@@ 10
wäl@@ 10
ining 10
automaten 10
fliegenden 10
bestellen 10
kiosk 10
blasen@@ 10
chee@@ 10
fit@@ 10
jahr@@ 10
renaiss@@ 10
rückseite 10
sn@@ 10
fußballmannschaft 10
tation 10
grand 10
saris 10
make@@ 10
hat@@ 10
ehen 10
stump 10
ffel 10
beladen 10
mem@@ 10
brü@@ 10
partie 10
break@@ 10
tend 10
schwarzhaarige 10
bootes 10
green@@ 10
bers 10
friedens@@ 10
waren@@ 10
besitz 10
lü@@ 10
abgestellt 10
hügel@@ 10
wolke 10
schaulusti@@ 10
side@@ 10
marker 10
challen@@ 10
inline 10
ziegelsteinen 10
proje@@ 10
scar@@ 10
aufgereiht 10
ßer 10
ands 10
babies 10
s. 10
shor@@ 10
batman 10
ma 10
mate 10
tails 10
classic 10
chemi@@ 10
prote@@ 10
bor 10
halloween 10
series 10
buil@@ 10
nel 10
news 10
ya@@ 10
tug@@ 10
symbol 10
plo@@ 10
dle 10
fier 10
kne@@ 10
cast 10
digital 10
tournament 10
colum@@ 10
toddlers 10
clim@@ 10
scending 10
rooftop 10
frozen 10
march 10
spect@@ 10
foot@@ 10
tribal 10
shar@@ 10
nurses 10
zens 10
helicopter 10
handrail 10
mexican 10
thumb 10
maintenance 10
eing 10
trashcan 10
branches 10
washes 10
stilts 10
cul@@ 10
late 10
pers 10
belts 10
demonstra@@ 10
pins 10
walked 10
creating 10
quickly 10
stepping 10
chopping 10
od 10
located 10
asia 10
serve 10
racers 10
coa@@ 10
earphones 10
sprayed 10
less 10
roadside 10
furry 10
ends 10
hiding 10
condu@@ 10
brother 10
goat 10
leaf@@ 10
lens 10
pots 10
driveway 10
emer@@ 10
displays 10
pin 10
gaze 10
scaffold 10
chalkboard 10
whom 10
storm 10
involving 10
pads 10
played 10
speaker 10
brin@@ 10
cop 10
decorative 10
stroke 10
transportation 10
canvas 10
ctions 10
activity 10
contraption 10
thin@@ 10
ple 10
facility 10
upward 10
seagul@@ 10
shape 10
workshop 10
desc@@ 10
juggles 10
fur 10
peeking 10
camera@@ 10
finishing 10
headdress 10
gazes 10
casually 10
bag@@ 10
apart 10
laun@@ 10
floo@@ 10
process 10
single 10
icy 10
incline 10
gallery 10
collared 10
gray-haired 10
feat@@ 10
displaying 10
approaches 10
nur@@ 10
cute 10
lled 10
hike 10
amidst 10
ssive 10
valley 10
hear@@ 10
sideways 10
work@@ 10
cial 10
embracing 10
cheese 10
numbers 10
surfs 10
celebrate 10
shing 10
lining 10
products 10
lighting 10
done 10
second 10
wns 10
bedienen 9
system 9
treppenhaus 9
pf 9
führer 9
strands 9
schützt 9
gas@@ 9
liegende 9
eisk@@ 9
letter@@ 9
pullunder 9
glä@@ 9
hübschen 9
felsvorsprung 9
ziegel 9
rai@@ 9
fluss@@ 9
fahrenden 9
zeitschriften 9
lehr@@ 9
gleis 9
steile 9
daran 9
entfernen 9
mexikani@@ 9
stirn@@ 9
tagsüber 9
jong@@ 9
spee@@ 9
einiger 9
erhö@@ 9
meer@@ 9
ak@@ 9
vergnügen 9
zimmer@@ 9
dahinter 9
betreten 9
welcome 9
passagiere 9
platz@@ 9
flipflops 9
utsche 9
schürzen 9
einkaufen 9
straßenarbeiter 9
sauber 9
tromm@@ 9
mut@@ 9
kul@@ 9
ppi@@ 9
violet@@ 9
eilen 9
chte@@ 9
knö@@ 9
hohem 9
rikscha 9
bauernmarkt 9
voll@@ 9
gepfle@@ 9
masken 9
statu@@ 9
gitarren@@ 9
formen 9
sle@@ 9
aussehendes 9
haut 9
schwimmen@@ 9
zten 9
ausgestre@@ 9
akusti@@ 9
kleide@@ 9
nerin 9
nass 9
kontrolle 9
spie@@ 9
elektrischen 9
sz@@ 9
hohes 9
krö@@ 9
teilnehmen 9
schwarz-weißem 9
warmen 9
stromschnellen 9
attraktive 9
felsk@@ 9
kämpft 9
erleuchteten 9
lädt 9
mäht 9
späht 9
uniformierte 9
beamte 9
of@@ 9
glatze 9
spritz@@ 9
regenmantel 9
diesen 9
bzw. 9
protestiert 9
zit@@ 9
schach 9
musikinstrumente 9
festgebunden 9
gkeiten 9
schwarz-weiße 9
geburtstag@@ 9
ffe 9
spielerinnen 9
spiegel@@ 9
henden 9
losen 9
sou@@ 9
gur@@ 9
vorführt 9
lippen 9
moo@@ 9
förm@@ 9
chers 9
bedruckten 9
holzzaun 9
flussufer 9
bemal@@ 9
autobahn 9
tage 9
unglück@@ 9
schützen 9
akten@@ 9
knie 9
bruder 9
einkaufstüten 9
jeweils 9
projek@@ 9
geöffne@@ 9
dritten 9
mente 9
stativ 9
astro@@ 9
einrichtung 9
herbst 9
segelboot 9
stil@@ 9
gent 9
schlammigen 9
heller 9
alko@@ 9
nacht@@ 9
schneebedecktes 9
aussicht 9
orangefarbenes 9
w-@@ 9
wasserski 9
flusses 9
sai@@ 9
ügel 9
radfahr@@ 9
amp@@ 9
piercing 9
stäbchen 9
steintreppe 9
hinterbeinen 9
besitz@@ 9
träger 9
last 9
bask@@ 9
friseur@@ 9
wär@@ 9
bten 9
ry-@@ 9
ev@@ 9
wenn 9
spir@@ 9
rauchen 9
ausländi@@ 9
absperrung 9
wetter 9
rudern 9
füll@@ 9
vorderen 9
tiges 9
lampen 9
beleuchtet 9
gefallen 9
festi@@ 9
ationen 9
heim@@ 9
dribbelt 9
fahren@@ 9
aufgaben 9
mmer 9
wahr@@ 9
uniformierter 9
lernen 9
erhobenen 9
patienten 9
press@@ 9
geo@@ 9
geschn@@ 9
kricket 9
wil@@ 9
vorder@@ 9
-hemd 9
tätowierte 9
bast@@ 9
zeichnen 9
meter 9
fau@@ 9
mön@@ 9
angezogener 9
gepflasterte 9
mei@@ 9
alt 9
enth@@ 9
bullen@@ 9
pok@@ 9
pfahl 9
stecken 9
pee@@ 9
brunn@@ 9
probieren 9
münz@@ 9
röhre 9
extre@@ 9
greyho@@ 9
wärmen 9
schwestern 9
peace-zeichen 9
pfeil 9
laternen 9
gru@@ 9
fur@@ 9
gelangen 9
bowling@@ 9
euro@@ 9
besucht 9
fertig 9
ktion 9
mel 9
stuhl@@ 9
fenstern 9
camp@@ 9
fußgänger@@ 9
geträn@@ 9
überdachten 9
speise@@ 9
prei@@ 9
basket@@ 9
grab 9
kragen 9
völlig 9
darin 9
cola-@@ 9
getroffen 9
felsbrocken 9
gestellt 9
kunst 9
flügel 9
ähnlich 9
bewaldeten 9
dal@@ 9
tun 9
vö@@ 9
überprüfen 9
geöffnet 9
ppel@@ 9
straßenseite 9
mach@@ 9
ope 9
nation@@ 9
weiteren 9
apfel 9
offen@@ 9
grasbewachsen@@ 9
erie 9
langärm@@ 9
mmen@@ 9
passiert 9
fernseher 9
gelegenen 9
spat@@ 9
ausgezogen 9
gepäck@@ 9
golden@@ 9
schafts@@ 9
karohemd 9
aters 9
meere@@ 9
spaziert 9
ites 9
say 9
teilt 9
binden 9
elementary 9
fassade 9
boden@@ 9
sicherheitsweste 9
essensstand 9
familien@@ 9
gruppen@@ 9
betrachter 9
rasenmäher 9
lten 9
flugzeugs 9
geschnittenen 9
umringt 9
seichten 9
gehol@@ 9
wasserfläche 9
baseball-@@ 9
hab@@ 9
lokal 9
hübsche 9
möbel@@ 9
trau@@ 9
skateboar@@ 9
ballon@@ 9
heruntergekommenen 9
würde 9
tol@@ 9
außenbereich 9
eink@@ 9
schneebedeckte 9
parallel 9
öffnen 9
strei@@ 9
bohrmaschine 9
schachteln 9
etwa 9
irokesenschnitt 9
kauf@@ 9
zei@@ 9
heraus@@ 9
backflip 9
live@@ 9
platten 9
inner@@ 9
saxofon 9
ales 9
chinesische 9
feier@@ 9
geschwindigkeit 9
zauber@@ 9
ssions 9
cockpit 9
kartoff@@ 9
chirur@@ 9
dritter 9
mas 9
nes 9
us-@@ 9
rett@@ 9
straßenmusiker 9
win 9
denk@@ 9
gegnerische 9
pub 9
perücke 9
las 9
barren 9
tren@@ 9
gesetz@@ 9
kimonos 9
tanzfläche 9
reklametafel 9
kapuzenpullover 9
san 9
formeller 9
befahrenen 9
kund@@ 9
dunk 9
osten 9
university 9
egg 9
ki 9
gitar@@ 9
begeisterung 9
bmx-@@ 9
lagen 9
half@@ 9
hm@@ 9
diert 9
gespannt 9
kulisse 9
snowboards 9
life@@ 9
kneipe 9
pferder@@ 9
fischernetz 9
ility 9
asiat 9
rasenfläche 9
moder@@ 9
jogger 9
inning 9
spielers 9
busine@@ 9
radrennfahrer 9
jung@@ 9
nat@@ 9
styli@@ 9
hop@@ 9
chil@@ 9
re 9
anhaben 9
bikin@@ 9
ärz@@ 9
orientalisch 9
ese 9
chie@@ 9
ckel@@ 9
dessert 9
deli 9
spot 9
stant 9
temp@@ 9
flannel 9
girl@@ 9
emp@@ 9
cigar 9
ual 9
cover@@ 9
acce@@ 9
graffiti@@ 9
dex 9
who@@ 9
foods 9
oring 9
pad 9
dunking 9
free@@ 9
casino 9
pow@@ 9
road@@ 9
gazing 9
shiel@@ 9
almost 9
thing 9
river@@ 9
dive 9
bends 9
hea@@ 9
stoop 9
barbe@@ 9
wheeler 9
types 9
strolls 9
decorations 9
jogs 9
pale 9
operates 9
employees 9
aprons 9
service 9
highchair 9
camp 9
adjusts 9
booths 9
farmers 9
section 9
reflection 9
task 9
foliage 9
bicycling 9
pathway 9
gardening 9
tends 9
painter 9
horizon 9
clouds 9
sniffing 9
joy 9
tiled 9
pet 9
breakdancing 9
attractive 9
swor@@ 9
capped 9
upset 9
raincoat 9
french 9
brass 9
strapped 9
league 9
tags 9
grabbing 9
suit@@ 9
containing 9
handle 9
cab 9
cellphones 9
rav@@ 9
concentra@@ 9
sorting 9
sure 9
draw 9
ture 9
bouncing 9
brushes 9
pumpkin 9
tripod 9
shiny 9
wait@@ 9
toi@@ 9
scenic 9
pencil 9
shoo@@ 9
chocolate 9
color@@ 9
checkers 9
fishes 9
featuring 9
sawing 9
bush@@ 9
even 9
odles 9
handed 9
hind 9
butterfly 9
opy 9
gesturing 9
really 9
beret 9
crowds 9
treat 9
dragging 9
dumpster 9
illumin@@ 9
interesting 9
motion 9
built 9
peer 9
crates 9
chewing 9
discu@@ 9
blue-@@ 9
photograph@@ 9
soap 9
than 9
displayed 9
atm 9
cann@@ 9
sledding 9
chopsticks 9
monkey 9
cer@@ 9
relea@@ 9
menu 9
appro@@ 9
jumped 9
images 9
exerci@@ 9
short-haired 9
scent 9
sad 9
gged 9
writes 9
known 9
curly-haired 9
circular 9
cloud 9
remo@@ 9
pattern 9
two-@@ 9
ducks 9
muzzle 9
afternoon 9
grabs 9
bath@@ 9
expl@@ 9
tight 9
belongings 9
hudd@@ 9
trench 9
stacked 9
able 9
wr@@ 9
ep@@ 9
kly 9
cleaner 9
tips 9
ering 9
muzzled 9
well-@@ 9
olympic 9
begins 9
protesters 9
unique 9
heavily 9
jumper 9
wig 9
score 9
riot 9
sking 9
rifle 9
recording 9
bathtub 9
cover 9
canadian 9
decora@@ 9
obser@@ 9
foc@@ 9
kaput@@ 8
erhält 8
wippe 8
straßenszene 8
gläser 8
ckchen 8
wildnis 8
gefroren@@ 8
elektro@@ 8
fußgängerübergang 8
wachmann 8
tele@@ 8
kommuni@@ 8
walk@@ 8
rührt 8
gefär@@ 8
gieren 8
schutzwe@@ 8
dä@@ 8
hubschrauber 8
zeh@@ 8
eisen@@ 8
verschieden 8
wegen 8
hock@@ 8
ausgebreite@@ 8
aufzug 8
altmodi@@ 8
wartungs@@ 8
schwenken 8
ier@@ 8
ozeans 8
werkzeugen 8
ilt 8
huhn 8
geschrie@@ 8
schlendern 8
eine@@ 8
schlucht 8
bürste 8
schwere 8
pinsel 8
sommertag 8
hosenträgern 8
dinosauri@@ 8
brot@@ 8
fts 8
umgebenen 8
stellte 8
kapuzen@@ 8
bürstet 8
karat@@ 8
sandburg 8
mal 8
seifenblase 8
zuhört 8
mari@@ 8
wän@@ 8
stag 8
hochstuhl 8
gürteln 8
blöcken 8
finden 8
bauarbeiter@@ 8
rothaariger 8
ffer@@ 8
lippen@@ 8
saugt 8
eln@@ 8
spring@@ 8
aufblasbare 8
jahrmarkt@@ 8
hängematte 8
spiegelbild 8
baseballfeld 8
indian@@ 8
stütz@@ 8
unge@@ 8
anweisungen 8
reifen@@ 8
unterhemd 8
vollstän@@ 8
esstisch 8
dicken 8
wasserski@@ 8
bagger 8
fahrradhelm 8
imbiss@@ 8
fasz@@ 8
spielzeugauto 8
bockenden 8
stamm@@ 8
fertig@@ 8
gefahren 8
horizont 8
heraushängender 8
ing-@@ 8
weise 8
amerikanisches 8
fußboden 8
leuchten@@ 8
prü@@ 8
teddy@@ 8
fels 8
schritt 8
natur 8
hydranten 8
hinder@@ 8
text 8
camping@@ 8
verschränkten 8
gitter 8
trockenen 8
schals 8
gebir@@ 8
kinds 8
wol@@ 8
säcken 8
angezogene 8
scheln 8
kreuzten 8
eier 8
zielt 8
ett@@ 8
angels 8
blaskapelle 8
passen@@ 8
demonstranten 8
dunkelheit 8
legerer 8
ansehen 8
beachvolleyball 8
kitchena@@ 8
silberne 8
gan 8
bestehend 8
kommen@@ 8
kontrol@@ 8
jogging@@ 8
servieren 8
handwerker 8
gegenüber@@ 8
tischer 8
metallstange 8
ereignis 8
denkt 8
nungen 8
straßenfest 8
versuch 8
ff 8
küsten@@ 8
hochha@@ 8
zäun@@ 8
handys 8
putzer 8
och@@ 8
dreirä@@ 8
soft@@ 8
bul@@ 8
pedal 8
sägt 8
schöner 8
geflochten@@ 8
ammer 8
zuhause 8
zie@@ 8
football-spiel 8
enga@@ 8
eig@@ 8
key@@ 8
ierten 8
hüfte 8
jack 8
college-@@ 8
staub 8
kürbis 8
einkäufer 8
blasinstru@@ 8
gän@@ 8
kahl@@ 8
staun@@ 8
berry 8
washington 8
basketballfeld 8
zelten 8
ridor 8
mitspieler 8
schieß@@ 8
arrangement 8
kerze 8
stumpf 8
lecker@@ 8
breiten 8
hockeyspiel 8
ieren 8
fernsehen 8
sonnenlicht 8
blau-grünen 8
militäruni@@ 8
säcke 8
hause 8
leb@@ 8
lun@@ 8
linke 8
dekoriert 8
altmodischen 8
kampfspor@@ 8
fliege 8
absol@@ 8
aktiv@@ 8
wahrscheinlich 8
dieselbe 8
schutt 8
mick@@ 8
irgendeinem 8
nun 8
teenagern 8
skate@@ 8
blö@@ 8
prun@@ 8
rockband 8
spru@@ 8
bän@@ 8
gemü@@ 8
utensi@@ 8
vorsichtig 8
ffe@@ 8
sporthalle 8
geschoben 8
anten 8
heiß@@ 8
flug 8
springer 8
elektronischen 8
geräte 8
papa 8
polohemd 8
touristen@@ 8
lands 8
schnit@@ 8
betonmauer 8
holzbrett 8
gesellschaft 8
chten@@ 8
wettei@@ 8
geld@@ 8
taube 8
aufgereg@@ 8
tage@@ 8
typi@@ 8
porträt 8
bodysuit 8
selbst@@ 8
sweatshirts 8
schnappt 8
gewinnen 8
buchstaben 8
träger@@ 8
gestreifte 8
frem@@ 8
zerinnen 8
rodeo@@ 8
betet 8
sfarbenen 8
mige 8
ßer@@ 8
harmonika 8
schaf 8
präch@@ 8
pfi@@ 8
medizini@@ 8
lieren 8
lusti@@ 8
gehstock 8
getreide 8
kr@@ 8
eingewickelt 8
brautjung@@ 8
saxoph@@ 8
information 8
masten 8
gne 8
gebauten 8
stür 8
hinauf@@ 8
wache 8
ziegelgebäude 8
sseln 8
meißelt 8
hero 8
lippe 8
lama 8
gangs 8
oldti@@ 8
gold-@@ 8
wach@@ 8
stämmen 8
ladung 8
brennende 8
tennisplatz 8
tenni@@ 8
zeremonie 8
eli@@ 8
züge 8
gelb-schwarzen 8
kopfbedeckungen 8
muskulöser 8
disk@@ 8
schwarm 8
rot-schwarzen 8
dul@@ 8
strümpfen 8
angehalten 8
stern@@ 8
main 8
schrau@@ 8
zieh@@ 8
telefonieren 8
schran@@ 8
gespielt 8
inder 8
theater@@ 8
holzkonstruktion 8
dekor@@ 8
bunge@@ 8
zhut 8
kragen@@ 8
klammert 8
oklaho@@ 8
ma-@@ 8
headset 8
glichen 8
tank@@ 8
nackte 8
bert 8
gießen 8
denkmal 8
beißen 8
wasserbecken 8
pp 8
stadtpark 8
fit 8
gert 8
fahrzeugen 8
faulenzen 8
wischen 8
ruder 8
verschwo@@ 8
ath@@ 8
spra@@ 8
beteil@@ 8
sky@@ 8
stum@@ 8
kamm 8
windhunde 8
nummern 8
telefonzelle 8
cheerlea@@ 8
ziegelbau 8
sine 8
base@@ 8
probiert 8
protest@@ 8
außer@@ 8
graues 8
buck@@ 8
indien 8
kämpfer 8
school-@@ 8
industri@@ 8
pizzeria 8
frischem 8
elektri@@ 8
gymnastik@@ 8
kajakfahrer 8
wassersprenger 8
vögeln 8
ss-@@ 8
bush 8
afrikaner 8
hellhäuti@@ 8
sicherheitswesten 8
saft 8
island 8
comi@@ 8
pain 8
verw@@ 8
kegeln 8
chin@@ 8
onne 8
eu@@ 8
zündet 8
konzer@@ 8
steinbank 8
eho@@ 8
elnden 8
werfer@@ 8
holi@@ 8
b-@@ 8
matra@@ 8
trocknet 8
kampfsportler 8
wollmütze 8
aten 8
schreib@@ 8
stabhoch@@ 8
skatet 8
rugbyspieler 8
body@@ 8
forscher 8
plasti@@ 8
objekti@@ 8
wash 8
puzzle 8
schloss 8
gleichgewicht 8
verwirr@@ 8
sari 8
anzahl 8
boar@@ 8
zahnbürste 8
strumpfhose 8
feuerstelle 8
rostigen 8
bongo 8
orientalischer 8
akrobati@@ 8
religiö@@ 8
krä@@ 8
dramati@@ 8
20@@ 8
gebäude@@ 8
fon@@ 8
sombrer@@ 8
weiterer 8
yama@@ 8
waschmaschine 8
canyon 8
minivan 8
footballspiel 8
ballerin@@ 8
striert 8
husky 8
ore@@ 8
cktem 8
eishockey@@ 8
kompletter 8
schmalen 8
taxis 8
obama 8
begeistert 8
haltend 8
rest@@ 8
kajaks 8
zielen 8
eishockey 8
itali@@ 8
sandwi@@ 8
ladefläche 8
geschmückt 8
protesti@@ 8
karierter 8
marki@@ 8
benden 8
slam 8
nahen 8
geldautomaten 8
gehüllt 8
kanerin 8
spielsachen 8
ha 8
indiani@@ 8
grünfläche 8
streifen@@ 8
ants 8
stor@@ 8
darüber 8
möchte 8
hellgrünen 8
gress 8
volleyballspieler 8
bands 8
backsteinmauer 8
navi@@ 8
rugs 8
kaner 8
ruhig 8
cowgirl 8
schmin@@ 8
bord 8
ant@@ 8
baseman 8
lly@@ 8
vege@@ 8
gin@@ 8
champa@@ 8
europa 8
boston 8
ske@@ 8
patrio@@ 8
spitzen 8
kanadi@@ 8
fish@@ 8
verse 8
kopfstein@@ 8
suv 8
fotogra@@ 8
boogie 8
erklimmt 8
rollerskat@@ 8
fackel 8
starbucks 8
soeben 8
smartphone 8
facial 8
marathonläufer 8
lion 8
wheel@@ 8
sail 8
mitt@@ 8
cen@@ 8
broad 8
ugh 8
va 8
geish@@ 8
stock@@ 8
circus 8
rosaroten 8
fedora 8
ped@@ 8
keeper 8
rollers 8
mani@@ 8
monk 8
return 8
eds 8
badminton 8
pop 8
earth 8
mag@@ 8
na 8
cari@@ 8
chin 8
kee@@ 8
uble 8
british 8
refle@@ 8
cons@@ 8
clar@@ 8
packing 8
barefooted 8
-colored 8
much 8
too 8
forested 8
communi@@ 8
fat 8
scrubs 8
napping 8
darkened 8
bled 8
usly 8
teammates 8
knee-@@ 8
somewhere 8
strolling 8
cries 8
surgical 8
spins 8
dinosau@@ 8
plain 8
had 8
sear@@ 8
skills 8
redhead 8
transit 8
amount 8
vending 8
labeled 8
cluttered 8
elabo@@ 8
rate 8
hammock 8
shaggy 8
masks 8
shelf 8
conne@@ 8
splashed 8
waiter 8
staff 8
stuff 8
rub@@ 8
stuck 8
edly 8
companion 8
stretches 8
hawaiian 8
hydrant 8
campfire 8
draped 8
shadow 8
midst 8
synchronized 8
skinny 8
squeezing 8
lem@@ 8
cases 8
cherry 8
ppy 8
envi@@ 8
underground 8
unhappy 8
protect 8
medium 8
downhill 8
stry 8
variety 8
projector 8
punch 8
purses 8
package 8
mix 8
sailboat 8
accident 8
artists 8
signing 8
lay@@ 8
candle 8
travel 8
table@@ 8
flower@@ 8
stream@@ 8
shing@@ 8
wheeled 8
directing 8
ately 8
lively 8
sk 8
zzy 8
grasp@@ 8
fountains 8
bear@@ 8
pocket 8
denti@@ 8
buried 8
waist 8
adverti@@ 8
because 8
banners 8
cheerleading 8
congreg@@ 8
citi@@ 8
canoes 8
eled 8
gown 8
imp@@ 8
musta@@ 8
cigar@@ 8
bundle 8
harve@@ 8
stringed 8
mess 8
iling 8
ly-@@ 8
judges 8
foam 8
easel 8
beads 8
peers 8
filming 8
harmonica 8
crayons 8
tery 8
skies 8
unusual 8
warehouse 8
tching 8
photographers 8
lanterns 8
lic 8
daytime 8
tying 8
barre@@ 8
bridesmaids 8
laboratory 8
angle 8
tum@@ 8
completed 8
sprays 8
industrial 8
european 8
ir 8
camels 8
homemade 8
vintage 8
when 8
pours 8
conductor 8
muscular 8
ured 8
shout@@ 8
looked 8
tackled 8
hardwood 8
establishment 8
abandoned 8
columns 8
trains 8
tuxe@@ 8
gesture 8
product 8
kisses 8
india 8
hammering 8
commercial 8
kaya@@ 8
dly 8
speeding 8
notes 8
employee 8
deer 8
bedroom 8
figures 8
tug-of-war 8
spotlight 8
every@@ 8
fting 8
acrobatic 8
deci@@ 8
nails 8
toothbrush 8
draws 8
crow@@ 8
packed 8
tic 8
religious 8
bartender 8
crashing 8
create 8
waterskiing 8
lor 8
destination 8
doesn 8
fields 8
followed 8
deser@@ 8
loaded 8
murky 8
victory 8
pay 8
navigates 8
carrier 8
canal 8
human 8
europe 8
streut 7
mehrfarbigen 7
packen 7
neuen 7
propan@@ 7
schwebebalken 7
supermarkt 7
sicher@@ 7
storte 7
wachsen@@ 7
stammeskleidung 7
pullovern 7
tropischen 7
badeho@@ 7
sandhügel 7
speer 7
seifen@@ 7
volkswagen 7
mascara 7
parks 7
warnweste 7
untergrund 7
kunft 7
uns 7
videokamera 7
bord@@ 7
fack@@ 7
befahren@@ 7
farbi@@ 7
stehendes 7
wart 7
kunde 7
umten 7
sem 7
ehnt 7
vogelperspektive 7
statur 7
schülerin 7
lier@@ 7
schlafend 7
glatz@@ 7
rosa@@ 7
ian 7
ham@@ 7
schnür@@ 7
trottet 7
schr@@ 7
geburtsta@@ 7
schenkt 7
12 7
gela@@ 7
unt 7
kellner 7
türkisen 7
militärangehöri@@ 7
beguta@@ 7
maskottchen 7
egt 7
rolle 7
musikinstrument 7
drü@@ 7
sausa@@ 7
sfeld 7
krabbelt 7
tisches 7
kümmern 7
tän@@ 7
schaum@@ 7
nassem 7
ladens 7
skleid 7
schwertern 7
steaks 7
migen 7
tinten@@ 7
schnau@@ 7
rohre 7
lach@@ 7
krankenhaus@@ 7
schützern 7
absperr@@ 7
ligh@@ 7
räumen 7
wandmaler@@ 7
wasserstraße 7
drah@@ 7
versteckt 7
fft 7
schwieri@@ 7
zutaten 7
weiblichen 7
nah@@ 7
nin@@ 7
gehöri@@ 7
städ@@ 7
ruck@@ 7
ziege 7
trak@@ 7
grei@@ 7
vro@@ 7
bauern@@ 7
jo 7
flü@@ 7
verdi@@ 7
zubereiten 7
zigen 7
mehr 7
schweiß@@ 7
schlafendes 7
zun@@ 7
kostümierte 7
rich@@ 7
sturm 7
uch 7
zuhör@@ 7
zentrum 7
plüschtier 7
ringkampf 7
schon@@ 7
riesi@@ 7
riesen@@ 7
händ@@ 7
gä@@ 7
willi@@ 7
zuschauer@@ 7
schokoladen@@ 7
regnet 7
sortiert 7
konferen@@ 7
schönes 7
weder 7
laut@@ 7
lack@@ 7
jün@@ 7
regelt 7
stunde 7
langes 7
geschäft@@ 7
tankstelle 7
hallo@@ 7
ween-@@ 7
rasier@@ 7
technik 7
kaukasi@@ 7
nnen 7
schun@@ 7
veter@@ 7
linge 7
solo 7
kte 7
volleyballspiel 7
die@@ 7
gte 7
wassermelonen 7
süßig@@ 7
kleid@@ 7
ros@@ 7
voran 7
hou@@ 7
profi-@@ 7
schließ@@ 7
blä@@ 7
lab@@ 7
nn@@ 7
modernen 7
skel@@ 7
staubsauger 7
übers@@ 7
metri@@ 7
seit@@ 7
palme 7
pelz@@ 7
klappstühlen 7
satt@@ 7
letscher 7
nägel 7
mess@@ 7
staffelei 7
des@@ 7
winterjacke 7
begin@@ 7
parken 7
gelän@@ 7
mo 7
scho@@ 7
tellern 7
herunterge@@ 7
mini-@@ 7
stürzten 7
produkt 7
olli@@ 7
sar@@ 7
personen@@ 7
nackter 7
ga 7
aufnah@@ 7
ordnung 7
onspieler 7
punk@@ 7
mitgliedern 7
plakat@@ 7
wüsten@@ 7
zeitungen 7
pfeife 7
schlittschuhen 7
shalle 7
violetter 7
wäh@@ 7
inen 7
schließen 7
laufband 7
pal@@ 7
uro 7
pfadfinder 7
leopar@@ 7
wäsche@@ 7
rag 7
motiv 7
schil@@ 7
passagieren 7
produkten 7
leitet 7
mmel 7
ruderboot 7
kunstgalerie 7
mannequin 7
fernseh@@ 7
wohnung 7
rot-weißes 7
stamm 7
sky-@@ 7
waff@@ 7
ade 7
vogel@@ 7
quadra@@ 7
nä@@ 7
leichtath@@ 7
laterne 7
reo@@ 7
rosen 7
sprit@@ 7
mikrosk@@ 7
nachmittag 7
ckelt 7
äng@@ 7
soon@@ 7
snap 7
sooners 7
cy@@ 7
aufmerk@@ 7
alls 7
faulen@@ 7
lichtern 7
schlamm@@ 7
ausgeb@@ 7
raz@@ 7
strom 7
vorbeil@@ 7
reflektierenden 7
putz@@ 7
nis 7
segelt 7
pyjam@@ 7
itten 7
pink-@@ 7
stem 7
rollerbla@@ 7
te-@@ 7
piercings 7
seligkeiten 7
notiz@@ 7
kran@@ 7
seichtem 7
flauschi@@ 7
sonn@@ 7
modell 7
geschlo@@ 7
amm@@ 7
geschir@@ 7
steuert 7
red-@@ 7
volle 7
ot 7
bew@@ 7
nachricht 7
schleift 7
umzäunten 7
tippt 7
pfeln 7
seltsam@@ 7
muss 7
om@@ 7
ise 7
klein 7
asp@@ 7
musikinstrumenten 7
legos 7
schär@@ 7
waffeln 7
iz@@ 7
ppen@@ 7
lebensmittelmarkt 7
spen@@ 7
cou@@ 7
gewe@@ 7
ring@@ 7
wieder 7
supp@@ 7
schülern 7
stapelt 7
scher@@ 7
weiß-schwarzer 7
past@@ 7
säubert 7
motocrossfahrer 7
randstein 7
smit@@ 7
wanderung 7
pyrami@@ 7
straßenrennen 7
pfadfin@@ 7
kehren 7
volunte@@ 7
rug@@ 7
power@@ 7
teria 7
wählt 7
möwen 7
sh-@@ 7
schanze 7
skater@@ 7
kolle@@ 7
müllcontainer 7
rugby@@ 7
nagel@@ 7
xylophon 7
lli@@ 7
stofftier 7
twister 7
tänzern 7
ukulele 7
pati@@ 7
fter 7
lich@@ 7
rodeoreiter 7
lilafarbener 7
nadel@@ 7
zigarre 7
splatz 7
wärtssal@@ 7
bati@@ 7
tauziehen 7
wintertag 7
boo@@ 7
gleich@@ 7
stücken 7
ly@@ 7
radfahren 7
model@@ 7
outfielder 7
ysi@@ 7
digit@@ 7
inlin@@ 7
mensch@@ 7
stadtszene 7
trüben 7
odle 7
pro 7
ph 7
spinn@@ 7
unbekann@@ 7
khakifarbener 7
superman 7
startlinie 7
skateboarders 7
traditionelle 7
tail@@ 7
lim@@ 7
spielenden 7
shake 7
cess 7
mediz@@ 7
ort@@ 7
ap@@ 7
einkaufsta@@ 7
tambour@@ 7
maj@@ 7
objekte 7
ärm@@ 7
pturen 7
senior 7
ub@@ 7
swan 7
ena@@ 7
tam@@ 7
ssene 7
kite@@ 7
shoe@@ 7
zurecht 7
u-bahnstation 7
rush 7
ach@@ 7
stro 7
eleph@@ 7
unicef 7
sleep 7
thor@@ 7
podest 7
punk 7
uth 7
paci@@ 7
manövri@@ 7
stars 7
mannschaft@@ 7
inline@@ 7
ards 7
zweite 7
verteidiger 7
experi@@ 7
inspe@@ 7
stunts 7
sca@@ 7
tro 7
slacks 7
usband 7
though 7
supermarket 7
lling 7
meadow 7
ths 7
railings 7
tree-@@ 7
tubes 7
rustic 7
starring 7
woodland 7
orned 7
workman 7
trophy 7
nude 7
mouths 7
written 7
clut@@ 7
may 7
lush 7
stores 7
puppet 7
visor 7
tton 7
mitt 7
marble 7
shift 7
irs 7
trotting 7
thick 7
waterski@@ 7
mascot 7
parent 7
patrons 7
vering 7
prints 7
resort 7
mowing 7
legged 7
videota@@ 7
exhi@@ 7
policemen 7
purchase 7
tracksuit 7
ronment 7
mountainous 7
pointed 7
level 7
laid 7
separate 7
measuring 7
pans 7
sparkl@@ 7
sy 7
support 7
raining 7
cycles 7
vacuum 7
stripe 7
picket 7
wea@@ 7
pirate 7
sements 7
were 7
shawl 7
watermelons 7
presents 7
shower 7
sociali@@ 7
snor@@ 7
punching 7
peaks 7
social 7
weigh@@ 7
maybe 7
turkey 7
hamm@@ 7
pigeon 7
acting 7
rolls 7
electri@@ 7
loa@@ 7
tarp 7
cle 7
our 7
rise 7
squats 7
newlywed 7
warming 7
arrow 7
marked 7
surfers 7
seafood 7
treadmill 7
sold 7
ass@@ 7
ume 7
leopard 7
day@@ 7
rafts 7
ight 7
activ@@ 7
happ@@ 7
monitors 7
gage 7
temple 7
rails 7
oil 7
ently 7
attle 7
embra@@ 7
silhouetted 7
open@@ 7
quet 7
reception 7
maid 7
scopes 7
quiet 7
vibrant 7
tains 7
named 7
seating 7
used 7
strings 7
strugg@@ 7
wilderness 7
semi-@@ 7
pops 7
topless 7
sunbathing 7
pict@@ 7
mounted 7
plea@@ 7
tress 7
vau@@ 7
typing 7
licking 7
om 7
striking 7
poodle 7
skydiving 7
medieval 7
nine 7
year 7
pyramid 7
vacuuming 7
sleeves 7
necklaces 7
ordering 7
ght@@ 7
xe 7
competiti@@ 7
check@@ 7
xylophone 7
wrestlers 7
scientist 7
travels 7
speeds 7
sidelines 7
prepared 7
upwards 7
sculptures 7
congre@@ 7
wen 6
gebunden 6
außen 6
reflektier@@ 6
fabri@@ 6
luftball@@ 6
ansammlung 6
ßi@@ 6
weibli@@ 6
stam@@ 6
brä@@ 6
kani@@ 6
prä@@ 6
bst 6
tz 6
watte 6
pickni@@ 6
köpfi@@ 6
ungewöhn@@ 6
stea@@ 6
q 6
rekla@@ 6
visi@@ 6
schlie@@ 6
ings@@ 6
usi@@ 6
ängt 6
gymnasti@@ 6
kopft@@ 6
gerü@@ 6
häl@@ 6
öpfen 6
heit@@ 6
beschä@@ 6
well@@ 6
schirm@@ 6
sold@@ 6
mittl@@ 6
freu@@ 6
hosen@@ 6
web@@ 6
tab@@ 6
mai@@ 6
dunkl@@ 6
gebi@@ 6
ett 6
burger 6
staff@@ 6
gemä@@ 6
größ@@ 6
gebo@@ 6
countr@@ 6
tetes 6
tech@@ 6
farben@@ 6
ehr@@ 6
schmu@@ 6
eit@@ 6
heira@@ 6
orientali@@ 6
ore 6
stel@@ 6
bekann@@ 6
teena@@ 6
rick@@ 6
öh@@ 6
bedi@@ 6
flö@@ 6
stud@@ 6
freil@@ 6
nei@@ 6
gos 6
itet 6
cours 6
iten@@ 6
drag@@ 6
xt 6
elektroni@@ 6
zeu@@ 6
strom@@ 6
irgen@@ 6
stik@@ 6
mpe 6
skop 6
eng@@ 6
schwanz 6
geschnitt@@ 6
schütt@@ 6
tut@@ 6
akkorde@@ 6
zahl@@ 6
alter@@ 6
soa@@ 6
haw@@ 6
rothaari@@ 6
kleideter 6
sprun@@ 6
ong@@ 6
schlo@@ 6
brau@@ 6
halsk@@ 6
poin@@ 6
vertei@@ 6
polizi@@ 6
demon@@ 6
rasen@@ 6
afroameri@@ 6
volk@@ 6
stung 6
bes 6
dy@@ 6
bedru@@ 6
gebung 6
erleu@@ 6
git@@ 6
ket 6
trainings@@ 6
port 6
stun@@ 6
bm@@ 6
wood@@ 6
new@@ 6
öff@@ 6
mets 6
ulptur 6
ef@@ 6
keiten 6
tar@@ 6
wehr@@ 6
tramp@@ 6
mikro@@ 6
zut@@ 6
smi@@ 6
orange@@ 6
balk@@ 6
ländi@@ 6
patri@@ 6
dges 6
erinnen 6
plak@@ 6
mask@@ 6
rosaro@@ 6
scoo@@ 6
cir@@ 6
contain@@ 6
snowboar@@ 6
pers@@ 6
ups 6
trav@@ 6
ath 6
rubs 6
ula 6
botto@@ 6
gon 6
stir@@ 6
heav@@ 6
cular 6
pipes 6
scal@@ 6
tons 6
stretched 6
infla@@ 6
compet@@ 6
night@@ 6
partici@@ 6
ssion@@ 6
recor@@ 6
any 6
cray@@ 6
ep 6
liqu@@ 6
cer 6
ghts 6
sail@@ 6
appe@@ 6
bathro@@ 6
ame 6
micro@@ 6
ribb@@ 6
cade 6
ceremon@@ 6
scope 6
ffy 6
jump@@ 6
inclu@@ 6
complet@@ 6
celebra@@ 6
whe@@ 6
sci@@ 6
horse@@ 6
refer@@ 6
ggles 6
cl@@ 6
weight 6
fashi@@ 6
key 6
near@@ 6
trie@@ 5
schlauch@@ 5
cowbo@@ 5
imbi@@ 5
zierten 5
elf 5
angebo@@ 5
aufga@@ 5
gewi@@ 5
tradition@@ 5
wassermel@@ 5
strick@@ 5
tchen 5
gewin@@ 5
blase 5
bohr@@ 5
haube 5
synch@@ 5
ittel 5
leh@@ 5
bung 5
tropi@@ 5
jeman@@ 5
schlam@@ 5
bot@@ 5
auen 5
bewölk@@ 5
eg@@ 5
cell@@ 5
radre@@ 5
inc@@ 5
spr@@ 5
kell@@ 5
gefä@@ 5
sporth@@ 5
obje@@ 5
garden@@ 5
staubsau@@ 5
dudel@@ 5
trun@@ 5
gewä@@ 5
rän@@ 5
beu@@ 5
strü@@ 5
beoba@@ 5
wagen@@ 5
chtern 5
stisch 5
rads 5
cow@@ 5
lob@@ 5
chts@@ 5
dess@@ 5
ketten@@ 5
selt@@ 5
hre 5
hne 5
tlichen 5
monit@@ 5
gum@@ 5
bogen@@ 5
säu@@ 5
verheira@@ 5
labor@@ 5
ruhi@@ 5
u-bahn@@ 5
schir@@ 5
sän@@ 5
übergewich@@ 5
farbenem 5
stad@@ 5
custo@@ 5
pos@@ 5
dur@@ 5
berei@@ 5
merk@@ 5
met 5
gie@@ 5
porträ@@ 5
ballspieler 5
gebil@@ 5
schach@@ 5
nisse 5
eite 5
ür@@ 5
briti@@ 5
ien@@ 5
dition@@ 5
irokesen@@ 5
crou@@ 5
/ 5
ulti@@ 5
geschmü@@ 5
butter@@ 5
lass@@ 5
akti@@ 5
note@@ 5
neugeboren@@ 5
schub@@ 5
ruder@@ 5
org@@ 5
tell@@ 5
theat@@ 5
balanci@@ 5
uft 5
verteidi@@ 5
ena 5
lok@@ 5
iler 5
hy@@ 5
gepunk@@ 5
rum 5
klei@@ 5
peop@@ 5
schütz@@ 5
bewer@@ 5
tattoo@@ 5
ßen@@ 5
schaften 5
universit@@ 5
ba 5
long@@ 5
oth@@ 5
brow@@ 5
obdachlo@@ 5
phones 5
schwe@@ 5
mod@@ 5
mati@@ 5
op 5
schaufen@@ 5
kimon@@ 5
mpe@@ 5
aga@@ 5
fic 5
twi@@ 5
ness 5
äufer 5
hula-ho@@ 5
jogg@@ 5
school@@ 5
jam@@ 5
wards 5
jewel@@ 5
servi@@ 5
vision 5
cheer@@ 5
watermel@@ 5
ghtly 5
fir@@ 5
mates 5
mirro@@ 5
uring 5
-covered 5
ush 5
iro@@ 5
sculp@@ 5
stret@@ 5
balan@@ 5
ama@@ 5
care@@ 5
shado@@ 5
carri@@ 5
mly 5
cit@@ 5
chain@@ 5
gn 5
rain@@ 5
pedestri@@ 5
ators 5
rail@@ 5
fisher@@ 5
consi@@ 5
lean@@ 5
store@@ 5
surroun@@ 5
ired 5
ctive 5
thro@@ 5
under@@ 5
ored 5
gh 5
grima@@ 5
figh@@ 5
oppon@@ 5
swim@@ 5
middle-@@ 5
vio@@ 5
var@@ 5
ees 5
gam@@ 4
wettbewer@@ 4
hölzer@@ 4
tei@@ 4
übun@@ 4
lege@@ 4
gepark@@ 4
inst 4
ment@@ 4
säug@@ 4
teenager@@ 4
chtung 4
secur@@ 4
bere@@ 4
vin@@ 4
buch@@ 4
ange 4
ym@@ 4
anda 4
terri@@ 4
kaffe@@ 4
pfei@@ 4
lamp@@ 4
anhän@@ 4
tig@@ 4
beach@@ 4
afrikani@@ 4
hobenen 4
kis 4
ump@@ 4
teilneh@@ 4
entrum 4
nier 4
bele@@ 4
fel 4
öffnung 4
ro 4
worfen 4
frisbee-@@ 4
kamer@@ 4
urr@@ 4
famili@@ 4
nung 4
llt 4
walmar@@ 4
entri@@ 4
adi@@ 4
trä@@ 4
x-@@ 4
ü 4
passagi@@ 4
zur@@ 4
geblüm@@ 4
langärmel@@ 4
angezogen@@ 4
marsch@@ 4
arren 4
deten 4
fei@@ 4
klapp@@ 4
letter 4
eignis 4
mmern 4
gebun@@ 4
bandan@@ 4
schnurr@@ 4
bulldo@@ 4
frisbe@@ 4
drahtzaun 4
cour@@ 4
sigen 4
knei@@ 4
niedri@@ 4
schwin@@ 4
gesell@@ 4
hydr@@ 4
fontän@@ 4
drit@@ 4
zw@@ 4
sof@@ 4
prüfen 4
mmert 4
sweste 4
freund@@ 4
kreu@@ 4
magaz@@ 4
angen 4
flag@@ 4
horizon@@ 4
akro@@ 4
ption 4
pfa@@ 4
unbefesti@@ 4
unters@@ 4
tags@@ 4
grund 4
getr@@ 4
saxof@@ 4
ünst@@ 4
schneebedeck@@ 4
sym@@ 4
trin@@ 4
gewöhn@@ 4
shop@@ 4
begeister@@ 4
tou@@ 4
elefan@@ 4
erungen 4
sur 4
motori@@ 4
zenden 4
anwei@@ 4
transport@@ 4
ire 4
mers 4
kreuz@@ 4
mmerung 4
strüm@@ 4
convers@@ 4
einsam@@ 4
quad@@ 4
wassers@@ 4
staub@@ 4
jug@@ 4
ge-@@ 4
trompe@@ 4
rout@@ 4
marin@@ 4
gewän@@ 4
nati@@ 4
perü@@ 4
gung@@ 4
ärmel@@ 4
wart@@ 4
schrift 4
is@@ 4
jum@@ 4
pho@@ 4
schmet@@ 4
@ 4
% 4
portra@@ 4
zü@@ 4
testelle 4
touri@@ 4
kostü@@ 4
ek 4
bucks 4
produ@@ 4
ara@@ 4
mbi@@ 4
beleb@@ 4
jen@@ 4
chine@@ 4
,@@ 4
mobi@@ 4
religi@@ 4
stau@@ 4
att@@ 4
blon@@ 4
leot@@ 4
richter 4
quar@@ 4
fiel@@ 4
pier@@ 4
sy@@ 4
woo@@ 4
badmin@@ 4
enthusi@@ 4
ird 4
sent@@ 4
chop@@ 4
mea@@ 4
ater 4
taining 4
kin 4
parti@@ 4
fig@@ 4
siting 4
comp@@ 4
bbing 4
sni@@ 4
read@@ 4
cause 4
lear@@ 4
contro@@ 4
clean@@ 4
self 4
mounta@@ 4
ssy 4
eting 4
circ@@ 4
pain@@ 4
sculpt@@ 4
guit@@ 4
long-@@ 4
erial 4
spea@@ 4
equip@@ 4
lap@@ 4
teri@@ 4
drop 4
blan@@ 4
daugh@@ 4
compe@@ 4
admi@@ 4
participat@@ 4
tures 4
stair@@ 4
dio 4
dings 4
boul@@ 4
enjo@@ 4
som@@ 4
cau@@ 4
muzz@@ 4
electro@@ 4
swi@@ 4
vy 4
hawk 4
tea@@ 4
peri@@ 4
gymna@@ 4
short-@@ 4
prepar@@ 4
balcon@@ 4
simi@@ 4
separ@@ 4
reklame@@ 3
ttet 3
männ@@ 3
zün@@ 3
mahl@@ 3
gemäl@@ 3
käfi@@ 3
fass@@ 3
kapu@@ 3
schwi@@ 3
heraush@@ 3
pfer 3
trägern 3
mierter 3
fon 3
schäfer@@ 3
fün@@ 3
eben 3
tter@@ 3
synchroni@@ 3
hnen@@ 3
präsen@@ 3
gall@@ 3
feln 3
ston 3
frau@@ 3
reiche 3
gesä@@ 3
steig 3
schut@@ 3
steh@@ 3
namens@@ 3
zau@@ 3
veranstalt@@ 3
bracht 3
zuschau@@ 3
blüm@@ 3
ssiert 3
rik@@ 3
erisch 3
liefer@@ 3
alie 3
bock@@ 3
legestelle 3
galerie 3
fußgängerüber@@ 3
strumpf@@ 3
sonni@@ 3
hälter 3
mäher 3
erwachsen@@ 3
beschäf@@ 3
vortra@@ 3
pulli 3
synchro@@ 3
karu@@ 3
maler@@ 3
é 3
verkaufs@@ 3
sprü@@ 3
gar 3
restauran@@ 3
mün@@ 3
twagen 3
arr@@ 3
ssa@@ 3
vern 3
brocken 3
geldbör@@ 3
cket 3
kei@@ 3
telefonz@@ 3
näch@@ 3
nass@@ 3
mexi@@ 3
lows 3
wasserspren@@ 3
frie@@ 3
dunkelhäuti@@ 3
dün@@ 3
abo@@ 3
ping@@ 3
uta@@ 3
worl@@ 3
vord@@ 3
woll@@ 3
vari@@ 3
anst@@ 3
later@@ 3
shir@@ 3
pizz@@ 3
spren@@ 3
othek 3
snowboard@@ 3
spannt 3
koff@@ 3
zeige 3
ñ@@ 3
ata 3
neopren@@ 3
ussion 3
gewich@@ 3
radrenn@@ 3
sanddün@@ 3
beisam@@ 3
oce@@ 3
zig@@ 3
lil@@ 3
käm@@ 3
mögli@@ 3
pian@@ 3
sonnenunter@@ 3
stüten 3
menten 3
seicht@@ 3
” 3
mierte 3
pic@@ 3
chens 3
räder 3
aufger@@ 3
phon 3
cock@@ 3
geno@@ 3
entlan@@ 3
hür@@ 3
od@@ 3
umarm@@ 3
ens@@ 3
lett 3
ful@@ 3
ington 3
veranst@@ 3
rüstung 3
cand@@ 3
pa 3
anie 3
quarter@@ 3
cue 3
fän@@ 3
gement 3
entfern@@ 3
gewicht 3
é@@ 3
syn@@ 3
gegneri@@ 3
vie 3
paral@@ 3
aro@@ 3
loun@@ 3
jugg@@ 3
unusu@@ 3
pump@@ 3
vacuum@@ 3
mannequ@@ 3
eless 3
ttery 3
asi@@ 3
cation 3
shin@@ 3
cano@@ 3
adul@@ 3
trol@@ 3
onloo@@ 3
spot@@ 3
wrest@@ 3
infan@@ 3
num@@ 3
vement 3
windo@@ 3
label@@ 3
cobb@@ 3
pony@@ 3
tain@@ 3
costum@@ 3
scream@@ 3
fee@@ 3
scu@@ 3
bran@@ 3
backpa@@ 3
cran@@ 3
ciali@@ 3
skinned 3
don 3
neck@@ 3
disc@@ 3
nament 3
door@@ 3
navig@@ 3
scienti@@ 3
vice 3
lad@@ 3
-skinned 3
mock 3
potat@@ 3
arring 3
beauti@@ 3
mp 3
cycle 3
acro@@ 3
fami@@ 3
suspen@@ 3
by@@ 3
ausseh@@ 2
troph@@ 2
gehö@@ 2
wärt@@ 2
bigen 2
arbeiter@@ 2
grä@@ 2
billar@@ 2
sino 2
karo@@ 2
müllton@@ 2
maschen@@ 2
reflekti@@ 2
einkaufsz@@ 2
zist 2
strin@@ 2
gewäss@@ 2
allen@@ 2
la-@@ 2
or-@@ 2
bür@@ 2
mpf@@ 2
drahtz@@ 2
pfel 2
zogen@@ 2
hals@@ 2
litt@@ 2
stamme@@ 2
gür@@ 2
leich@@ 2
schauf@@ 2
rah@@ 2
ele 2
ppies 2
schriften 2
gebildet 2
tax@@ 2
graff@@ 2
richt@@ 2
itt 2
schlit@@ 2
u-@@ 2
silhou@@ 2
trei@@ 2
moto@@ 2
masch@@ 2
sklei@@ 2
’ 2
zeremon@@ 2
board@@ 2
exer@@ 2
audi@@ 2
tour@@ 2
monopol@@ 2
schoko@@ 2
tribün@@ 2
rollersk@@ 2
rasse 2
srichter 2
ima@@ 2
gem@@ 2
eth@@ 2
sammlung 2
emand 2
manö@@ 2
felsvor@@ 2
oba@@ 2
brünet@@ 2
stert 2
schmut@@ 2
motocross@@ 2
emon@@ 2
brett@@ 2
gebau@@ 2
deo 2
marath@@ 2
läu@@ 2
verschne@@ 2
seli@@ 2
aufgerei@@ 2
agen 2
vis@@ 2
klassen@@ 2
mmer@@ 2
swesten 2
amerikani@@ 2
orn@@ 2
demonstr@@ 2
pullo@@ 2
‘ 2
führ@@ 2
mern 2
bede@@ 2
boo 2
bong@@ 2
gner 2
ttert 2
stin@@ 2
rand@@ 2
zogen 2
xylo@@ 2
ever@@ 2
steiger 2
tos 2
sell@@ 2
lein@@ 2
mach 2
jog@@ 2
versu@@ 2
muse@@ 2
konzentri@@ 2
digkeit 2
dekora@@ 2
sentation 2
eht 2
gehü@@ 2
mcdonal@@ 2
flüssig@@ 2
ters@@ 2
pflaster@@ 2
schnüff@@ 2
ause 2
gerer 2
enti@@ 2
währen@@ 2
berü@@ 2
undert 2
papi@@ 2
anz 2
gir@@ 2
meiß@@ 2
7@@ 2
drin@@ 2
beweg@@ 2
bewe@@ 2
smar@@ 2
gepflaster@@ 2
bou@@ 2
ffee 2
kunstwer@@ 2
nea@@ 2
versamm@@ 2
kehr@@ 2
oph@@ 2
entspan@@ 2
torhü@@ 2
bün@@ 2
mc@@ 2
symbo@@ 2
fitne@@ 2
thi@@ 2
beut@@ 2
harmoni@@ 2
vri@@ 2
posi@@ 2
donal@@ 2
ssi 2
bill@@ 2
ympi@@ 2
togra@@ 2
hill@@ 2
approa@@ 2
camer@@ 2
ners 2
neigh@@ 2
wai@@ 2
class@@ 2
possi@@ 2
hug@@ 2
moun@@ 2
sle 2
wash@@ 2
cture 2
pajam@@ 2
swee@@ 2
lly 2
secon@@ 2
beau@@ 2
presen@@ 2
brides@@ 2
ander 2
cil 2
stuff@@ 2
xing 2
irts 2
bott@@ 2
scaffol@@ 2
sely 2
swin@@ 2
blue@@ 2
kets 2
acrobati@@ 2
tty 2
close@@ 2
two@@ 2
hout 2
repair@@ 2
ried 2
graffit@@ 2
paper@@ 2
roof@@ 2
buff@@ 2
shoul@@ 2
blea@@ 2
cers 2
veral 2
outf@@ 2
even@@ 2
born 2
shaw@@ 2
invol@@ 2
classi@@ 2
ental 2
urs 2
blond-@@ 2
letes 2
chur@@ 2
` 2
dread@@ 2
rench 2
hard@@ 2
ples 2
scen@@ 2
ssig@@ 2
xy@@ 2
mir@@ 2
entran@@ 2
puzz@@ 2
tial 2
locks 2
sidel@@ 2
scul@@ 2
cele@@ 2
partment 2
escal@@ 2
fini@@ 2
ulen 1
platt@@ 1
höl@@ 1
vorbe@@ 1
ca-@@ 1
ligi@@ 1
hub@@ 1
schlen@@ 1
aufblas@@ 1
ilen 1
weih@@ 1
herau@@ 1
unord@@ 1
untersu@@ 1
fotografi@@ 1
pflo@@ 1
amü@@ 1
kastan@@ 1
lapt@@ 1
auran@@ 1
individu@@ 1
_ 1
comput@@ 1
bäl@@ 1
kajak@@ 1
schacht@@ 1
unte@@ 1
pull@@ 1
män@@ 1
aquari@@ 1
bekan@@ 1
unordent@@ 1
eiscre@@ 1
aku@@ 1
glied 1
bewal@@ 1
pfü@@ 1
perspektive 1
verwir@@ 1
fläch@@ 1
jewe@@ 1
vergnü@@ 1
unice@@ 1
überda@@ 1
agi@@ 1
utieren 1
eys 1
kab@@ 1
gestiku@@ 1
konstruk@@ 1
auss@@ 1
ehmen 1
dau@@ 1
lade@@ 1
old@@ 1
legg@@ 1
ih@@ 1
auft 1
kaja@@ 1
struk@@ 1
zäunten 1
erseite 1
zylin@@ 1
militä@@ 1
ehr 1
gestreif@@ 1
handwer@@ 1
frieden@@ 1
elek@@ 1
köpfiger 1
gepf@@ 1
akustik@@ 1
tender 1
läch@@ 1
hula-hoop-@@ 1
blas@@ 1
dium 1
benut@@ 1
scheinlich 1
barfü@@ 1
gepä@@ 1
skap@@ 1
schwar@@ 1
brand@@ 1
älter@@ 1
betra@@ 1
schwa@@ 1
äht 1
kleidet 1
rosti@@ 1
smart@@ 1
repar@@ 1
pär@@ 1
riksch@@ 1
deco@@ 1
geschä@@ 1
mül@@ 1
arre 1
mpft 1
marschi@@ 1
schl@@ 1
gesti@@ 1
hula-@@ 1
froren@@ 1
häuti@@ 1
automat@@ 1
lichkeit 1
neben@@ 1
sungen 1
mals 1
leimer 1
achter@@ 1
geflo@@ 1
gestrei@@ 1
orient@@ 1
üb@@ 1
öser 1
asiati@@ 1
pierc@@ 1
füllten 1
verschie@@ 1
selbe 1
amer@@ 1
burg@@ 1
caf@@ 1
öhn@@ 1
bör@@ 1
hom@@ 1
è@@ 1
à 1
runn@@ 1
yar@@ 1
zurü@@ 1
erzeug@@ 1
schied@@ 1
bad@@ 1
cany@@ 1
bab@@ 1
karre 1
äumen 1
heraushän@@ 1
stromschn@@ 1
volley@@ 1
strau@@ 1
samm@@ 1
jugend@@ 1
bchen 1
dt 1
uniform@@ 1
rying 1
irt 1
cident 1
guitar@@ 1
footed 1
af@@ 1
stures 1
ssell 1
gical 1
clou@@ 1
stening 1
wel 1
treadmi@@ 1
tting 1
contra@@ 1
mur@@ 1
stab@@ 1
&apos;@@ 1
suring 1
flau@@ 1
chal@@ 1
attemp@@ 1
bies 1
tooth@@ 1
silhouet@@ 1
bal 1
pig@@ 1
towar@@ 1
quo@@ 1
accor@@ 1
gue 1
publi@@ 1
indu@@ 1
sax@@ 1
usk 1
aband@@ 1
laugh@@ 1
thum@@ 1
gul@@ 1
yho@@ 1
bora@@ 1
squee@@ 1
ree 1
fted 1
perform@@ 1
practi@@ 1
bed@@ 1
shal@@ 1
lared 1
snea@@ 1
cated 1
sque@@ 1
py@@ 1
flops 1
q@@ 1
numer@@ 1
fac@@ 1
milit@@ 1
hospit@@ 1
shirt@@ 1
performan@@ 1
shepher@@ 1
borne 1
dump@@ 1
pod 1
ban 1
spark 1
bene@@ 1
gray@@ 1
ricksha@@ 1
after@@ 1
foli@@ 1
adju@@ 1
brown@@ 1
dent 1
bub@@ 1
concre@@ 1
police@@ 1
$ 1
brun@@ 1
rested 1
repa@@ 1
traf@@ 1
cauc@@ 1
amo@@ 1
tory 1
ory 1
checker@@ 1
dest 1
vibran@@ 1
establi@@ 1
shment 1
climb@@ 1
chalk@@ 1
wheelbar@@ 1
track@@ 1
tently 1
race@@ 1
pating 1
za 1
outfiel@@ 1
-american 1
vel 1
differ@@ 1
rece@@ 1
ssor 1
elect@@ 1
inju@@ 1
obsta@@ 1
conc@@ 1
ow 1
cham@@ 1
= 1
