. 225824
a 197416
in 107760
ein 75532
einem 54864
, 51604
the 43896
eine 39732
und 35784
mit 35376
auf 35072
on 32700
man 31528
mann 31328
is 30268
and 29580
of 27508
einer 27104
with 24720
an 24152
der 20592
frau 16772
woman 15904
die 15828
two 15508
zwei 15492
are 14936
einen 13952
to 12568
im 12520
people 12484
at 11948
wearing 10492
von 9452
young 9120
sich 9096
white 8892
shirt 8888
dem 8652
mädchen 8508
junge 8296
black 8016
his 7876
while 7788
vor 7776
zu 7652
blue 7500
men 7264
steht 7140
sitting 6972
red 6964
den 6956
girl 6920
boy 6768
dog 6736
männer 6668
sitzt 6500
hund 6472
standing 6456
playing 6336
group 6208
person 6052
straße 5796
street 5796
während 5588
down 5576
walking 5512
gruppe 5484
her 5300
hält 5288
spielt 5240
front 5148
das 5068
hemd 4960
holding 4948
ball 4928
hat 4796
personen 4620
über 4524
one 4476
drei 4312
by 4248
water 4244
eines 4220
three 4220
blauen 4152
ist 3988
frauen 3976
roten 3956
women 3948
kind 3944
weißen 3936
neben 3864
aus 3784
stehen 3780
up 3768
spielen 3756
am 3728
sitzen 3712
green 3712
menschen 3700
little 3660
for 3644
as 3640
durch 3592
looking 3580
child 3576
geht 3552
bei 3544
outside 3484
fährt 3420
trägt 3408
hand 3396
large 3364
wasser 3352
um 3252
through 3252
kinder 3172
yellow 3124
kleines 3088
children 3080
brown 3064
macht 2988
springt 2972
from 2916
their 2900
schwarzen 2852
into 2844
kleiner 2808
entlang 2796
small 2684
park 2668
next 2656
leute 2640
other 2640
out 2568
dressed 2568
gehen 2552
some 2504
-@@ 2492
over 2444
building 2412
etwas 2336
riding 2336
running 2324
mehrere 2320
orange 2316
oberteil 2312
seinem 2312
er 2308
großen 2296
near 2284
jacket 2264
t-shirt 2260
around 2248
another 2248
baby 2184
grünen 2176
stand 2176
jungen 2168
kleidung 2152
field 2152
es 2136
sidewalk 2136
beach 2084
crowd 2084
jeans 2036
jacke 2032
läuft 2024
pink 2024
stands 2008
be@@ 1996
shorts 1972
jumping 1972
sits 1972
table 1964
sind 1960
fahrrad 1960
behind 1956
ge@@ 1952
für 1940
hintergrund 1924
freien 1912
schaut 1892
grass 1880
strand 1876
bike 1872
luft 1868
anderen 1844
background 1840
snow 1836
city 1832
junger 1824
tisch 1820
&apos;s 1776
hut 1772
girls 1768
air 1764
top 1756
gelben 1748
hinter 1732
gebäude 1728
sie 1724
player 1724
nach 1704
looks 1692
asian 1684
wall 1680
band 1676
andere 1648
dogs 1624
dress 1620
several 1616
that 1616
kleine 1612
older 1612
four 1600
vier 1588
off 1588
camera 1572
nähe 1564
wird 1548
beim 1536
boden 1532
schwarzer 1528
talking 1528
essen 1520
lady 1520
something 1520
sand 1512
kleinen 1504
soccer 1500
kamera 1488
menschenmenge 1484
skateboard 1484
walks 1484
guitar 1480
along 1480
boys 1464
hair 1460
working 1460
paar 1452
play 1452
food 1448
hunde 1444
rock 1444
er@@ 1444
together 1444
vorbei 1424
gras 1424
a@@ 1424
hoch 1420
pool 1416
smiling 1412
des 1400
schnee 1396
rennt 1392
restaurant 1388
ten 1376
gray 1372
it 1368
game 1360
picture 1360
has 1356
ihre 1348
an@@ 1344
s 1340
unter 1324
car 1324
plays 1324
kleid 1316
&quot; 1300
feld 1296
ver@@ 1288
holds 1288
ihren 1284
e 1264
pants 1264
fahren 1256
bench 1256
road 1256
gitarre 1252
side 1252
him 1248
old 1240
glasses 1224
s@@ 1216
walk 1216
t@@ 1212
sit 1212
stage 1212
carrying 1200
älterer 1196
couple 1196
sein 1192
g@@ 1192
rennen 1192
e@@ 1188
bühne 1180
brille 1176
bank 1176
zusammen 1168
draußen 1168
ihr 1160
them 1160
bicycle 1148
t 1144
i@@ 1136
als 1136
en@@ 1136
braunen 1128
male 1128
foto 1124
baseball 1124
face 1124
herum 1120
race 1120
weißer 1116
tree 1116
seine 1108
kopf 1108
blickt 1104
hose 1104
basketball 1104
sehen 1100
taking 1100
stadt 1096
gehweg 1092
each 1088
uniform 1084
d@@ 1084
te 1080
en 1080
football 1080
laufen 1072
doing 1068
seinen 1064
dabei 1064
weg 1064
re@@ 1056
head 1052
day 1052
watching 1044
across 1044
dirt 1040
guy 1040
boat 1036
there 1036
area 1032
bus 1028
hinunter 1028
blond 1028
liegt 1024
in@@ 1024
k@@ 1024
team 1024
tragen 1016
versucht 1012
arbeitet 1004
brauner 1004
tennis 1004
jumps 1000
be 996
back 996
ter 992
hands 992
ground 984
m@@ 980
female 980
room 980
kids 976
schauen 968
performing 964
wand 960
dame 960
wie 956
coat 956
große 952
its 952
or 952
who 952
ch@@ 948
machen 944
he 944
ed 944
eating 944
f@@ 940
lächelt 936
gen 936
sch@@ 936
using 932
being 932
striped 928
orangefarbenen 924
suit 924
ihrem 916
arbeiten 912
schwarz 912
ers 908
di@@ 904
watch 904
under 900
b@@ 896
ältere 896
horse 892
store 892
many 892
halten 888
tag 888
ihm 888
boot 888
o@@ 884
mouth 884
purple 884
junges 880
zeigt 880
arm 876
sign 876
long 872
hosen 864
bürgersteig 864
this 864
liest 860
sieht 860
outfit 860
un@@ 860
look 860
spricht 856
runs 848
reading 840
unterhalten 836
players 836
sunglasses 832
construction 832
spieler 828
haaren 816
helm 816
clothing 812
pferd 808
y 808
microphone 808
p@@ 804
c@@ 804
mountain 800
mantel 796
rosa 796
ocean 796
toy 796
workers 792
dark 792
viele 788
auf@@ 788
during 788
de@@ 784
sonnenbrille 780
z@@ 780
grauen 780
weißem 776
zum 776
middle 776
watches 776
bild 772
ing 772
climbing 772
blauem 768
gekleidete 764
trick 764
work 764
past 764
seiner 760
ins 760
elderly 760
anzug 756
“ 752
ein@@ 752
auto 748
gesicht 748
helmet 748
against 748
ra@@ 740
train 740
dancing 736
singt 732
window 732
klettert 728
n@@ 728
ihnen 724
rides 724
all 716
führt 712
al@@ 712
„ 712
they 712
chair 712
weiß 708
graffiti 708
posing 708
about 708
spiel 704
five 704
covered 700
u@@ 696
de 696
ab@@ 696
fußball 696
posiert 696
bag 696
trees 696
st@@ 692
felsen 692
darauf 692
wooden 692
having 692
waiting 692
outdoor 692
fünf 688
raum 688
arbeiter 688
d 688
shirts 688
einige 680
very 680
li@@ 676
befindet 676
blauer 676
swimming 676
getting 672
wirft 668
bar 668
stuhl 664
baum 664
ice 664
floor 664
blau 660
line 660
trying 660
mikrofon 656
schild 652
g 652
colorful 652
fenster 648
la@@ 648
le@@ 648
weiße 644
schwarzem 644
sehr 644
statue 644
gekleideter 640
busy 640
jump 636
singing 636
fence 636
ge 628
trikot 624
geschäft 624
cart 624
wiese 620
ro@@ 620
meer 620
pullover 620
rotem 620
ds 620
springen 616
schwarze 616
oder 616
truck 616
kindern 612
roter 612
ung 612
langen 612
wald 612
book 612
schen 608
hand@@ 608
high 608
isst 604
big 604
k 604
frisbee 604
light 604
ride 604
männern 600
wagen 600
holz@@ 600
lo@@ 600
o 600
hill 600
market 600
laying 600
inside 600
bluse 596
anderer 596
mütze 596
board 596
hats 596
do@@ 592
wartet 592
se 592
gestreiften 592
i 592
se@@ 592
cap 592
tan 592
aus@@ 588
body 588
bright 588
motorrad 584
h@@ 580
others 580
kitchen 580
v@@ 576
l 576
buch 576
el@@ 576
si@@ 576
cellphone 576
path 576
grassy 576
alter 572
parade 572
someone 572
voller 568
ern 568
ma@@ 568
ri@@ 568
ti@@ 568
making 568
posieren 564
haar 564
takes 564
night 564
clothes 564
rot 560
zug 560
werden 560
ts 560
motorcycle 560
tanzen 556
st 556
umbrella 556
stock 552
towards 552
full 552
oberkörper 548
sweatshirt 548
volleyball 548
computer 548
track 548
enjoying 548
brick 548
ger 544
bereitet 544
see 544
zieht 544
surfer 544
hügel 540
n 540
shop 540
metal 540
platz 536
markt 536
paper 536
river 536
swing 536
l@@ 532
reitet 532
tank 532
piece 532
ready 532
sche 528
betrachtet 528
me@@ 524
she 524
handy 520
warten 520
zu@@ 520
blonde 520
leuten 520
w@@ 520
hockey 520
zwischen 520
party 520
ca@@ 520
art 520
oben 516
spielzeug 516
instrument 516
open 516
snowboarder 516
tasche 512
em 512
ba@@ 512
sweater 512
grill 508
schläft 508
berg 508
ab 508
colored 508
bäumen 504
worker 504
po@@ 500
stick 500
lehnt 496
pa@@ 496
p 496
painting 496
above 496
bu@@ 492
vor@@ 492
lake 492
fangen 488
mi@@ 488
händen 488
um@@ 488
con@@ 488
house 488
phone 488
dance 488
adults 488
going 488
maul 484
seite 484
to@@ 484
set 484
run 484
music 484
at@@ 480
fluss 480
küche 480
sp@@ 480
tes 480
miteinander 480
beobachtet 480
shopping 480
hard 480
vest 480
snowy 480
le 476
sh@@ 476
surrounded 476
wave 476
ta@@ 472
ihrer 472
tanzt 472
stone 472
uniforms 472
onto 472
rucksack 468
kleinkind 468
bauarbeiter 468
ss@@ 468
zaun 468
so@@ 468
cowboy 468
kid 468
subway 468
outdoors 468
crowded 468
al 464
lächeln 464
radfahrer 464
couch 464
photo 464
schiebt 460
backpack 460
beside 460
smiles 460
gear 460
on@@ 456
end 456
wasser@@ 456
mo@@ 456
haben 456
sa@@ 456
pole 456
teil 452
vom 452
2 452
welle 452
befinden 448
her@@ 448
gegen 448
american 448
african 448
drinking 448
rücken 444
schwimmbecken 444
chen 444
treppe 444
it@@ 444
family 444
denen 440
über@@ 440
r@@ 440
event 440
fire 440
bridge 440
flowers 440
haus 436
skateboarder 436
co@@ 436
ar@@ 436
lot 436
toddler 436
unter@@ 432
ly 432
police 432
guys 432
gathered 432
malt 428
nimmt 428
kurzen 428
arms 428
hanging 428
ert 424
asiatische 424
ck 424
y@@ 424
catch 424
away 424
brücke 420
ges 420
pro@@ 420
show 420
preparing 420
beautiful 420
ck@@ 416
ke 416
schneidet 416
stück 412
ni@@ 412
gebäudes 412
familie 412
verkauft 412
blumen 412
zur 412
object 412
steps 412
sleeping 412
costume 412
leaning 412
mitten 408
or@@ 408
großer 408
ka@@ 408
machine 408
like 408
after 408
fishing 408
einander 404
trinkt 404
m 404
rosafarbenen 404
bikini 404
versammelt 404
jemand 404
te@@ 404
pose 404
ting 404
ex@@ 400
hängt 400
ent@@ 400
bunten 400
sprung 400
ve 400
rope 400
fountain 400
plaid 400
geländer 396
ei@@ 396
erwachsene 396
fe@@ 396
shirtless 396
stairs 396
lich 392
sen 392
wa@@ 392
autos 392
teams 392
ihn 392
rocks 392
take 392
chairs 392
ende 388
bo@@ 388
hof 388
ch 388
rote 388
he@@ 388
rodeo 388
drink 388
adult 388
spiel@@ 384
ber@@ 384
gerade 384
reihe 384
telefoniert 384
shoes 384
belebten 380
tritt 380
spazieren 380
vi@@ 380
hebt 380
gt 380
hemden 376
umgeben 376
schlägt 376
metall@@ 376
dock 376
schwimmt 376
straßen@@ 376
blicken 376
ha@@ 376
gen@@ 376
glass 376
selling 376
sunny 376
mutter 372
winter 372
does 372
forest 372
ger@@ 368
gewässer 368
we@@ 368
schaukel 368
laden 368
new 368
ru@@ 368
ski 368
ps 368
wood 368
setting 368
racing 368
weste 364
bart 364
decke 364
gekleidet 364
schneebedeckten 364
fliegt 364
fußballspieler 364
kostüm 364
vielen 364
freiem 364
view 364
bikes 364
tall 364
station 360
bi@@ 360
seil 360
grünem 360
flag 360
putting 360
both 360
corner 360
sonnigen 356
teenager 356
hände 356
ten@@ 356
publikum 356
ne@@ 356
eren 356
fuß 356
short 356
pushing 356
throwing 356
himmel 352
richtung 352
fla@@ 352
way 352
equipment 352
ding 352
have 352
slide 352
ladies 352
between 352
kämpfen 348
hohen 348
weißes 348
fest 348
sofa 348
pe@@ 348
public 348
laughing 348
bahn 344
alte 344
herunter 344
dunklen 344
am@@ 344
instruments 344
da@@ 340
wi@@ 340
fish 340
bed 340
pictures 340
bereiten 336
fahrzeug 336
blaue 336
dach 336
sen@@ 336
da 336
land 336
au@@ 336
nen 336
kopfbedeckung 336
net 336
zuschauen 336
plastic 336
ramp 336
asiatischer 332
eln 332
zuschauer 332
blondes 332
musik 332
3 332
ut@@ 332
base 332
sta@@ 332
orangen 332
marathon 332
which 332
playground 332
works 332
poses 332
trail 332
woods 332
reads 332
yard 332
ur@@ 328
überqueren 328
sten 328
mannes 328
alten 328
scher 328
zeitung 328
pi@@ 328
blick 328
ho@@ 328
fi@@ 328
c 328
school 328
sun 328
skirt 328
concrete 328
beard 328
der@@ 324
ons 324
sh 324
midair 324
papier 320
stein@@ 320
ckt 320
sk@@ 320
ster 320
hinauf 320
th@@ 320
bowling 320
number 320
just 320
led 320
enden 316
kunststück 316
ken 316
karierten 316
mauer 316
les 316
seated 316
braune 312
mar@@ 312
genießt 312
davon 312
schirm 312
den@@ 312
where 312
distance 312
lined 312
maschine 308
ko@@ 308
zusehen 308
schuhen 308
laptop 308
ausrüstung 308
stange 308
attire 308
toward 308
get 308
what 308
bags 308
ling 304
sechs 304
lacht 304
gelber 304
stufen 304
ker 304
gibt 304
e-@@ 304
mittleren 304
zuschauern 304
veranstaltung 304
car@@ 304
box 304
beer 304
six 304
cooking 304
mitte 300
führen 300
bereich 300
benutzt 300
boots 300
menge 300
clown 300
rampe 300
b 300
right 300
vests 300
cutting 300
blond-hair 300
filled 300
rider 300
leiter 296
großes 296
nummer 296
lässt 296
fa@@ 296
stühlen 296
einigen 296
gegenstand 296
court 296
cream 296
buildings 296
cross 296
shore 296
left 296
pulling 296
tent 296
spielplatz 292
chten 292
tunnel 292
hell@@ 292
ssen 292
sport@@ 292
ches 292
baseballspieler 292
treten 292
unterhält 292
korb 292
alters 292
mensch 292
home 292
mother 292
middle-aged 292
zusieht 288
liche 288
bereit 288
rasen 288
trinken 288
stellt 288
ben 288
- 288
fotos 288
; 288
smoking 288
concert 288
sky 288
crossing 288
cliff 288
friends 288
appears 288
schi@@ 284
ler 284
scheint 284
j@@ 284
nebeneinander 284
nahe 284
zuschaut 284
bearded 284
edge 284
showing 284
spectators 284
mountains 284
few 284
rei@@ 280
hoch@@ 280
bett 280
ü@@ 280
nachts 280
tra@@ 280
bar@@ 280
pp@@ 280
fußball@@ 280
mannschaft 280
armen 280
for@@ 280
lila 280
– 280
make 280
horses 280
jersey 280
cars 280
&apos; 276
typ 276
surfboard 276
son 276
nearby 276
scarf 276
suits 276
performs 276
dresses 276
tor 272
bier 272
hinten 272
sonne 272
augen 272
rotes 272
beton@@ 272
mund 272
zelt 272
roller 272
versuchen 272
zigarette 272
kostümen 272
tem 272
ce 272
ss 272
trikots 272
outfits 272
driving 272
carries 272
apron 272
perform 272
legt 268
mehreren 268
läufer 268
coffee 268
fruit 268
ted 268
time 268
arts 268
leaves 268
holz 264
schürze 264
schwimm@@ 264
schal 264
fängt 264
werfen 264
beobachten 264
eis@@ 264
pre@@ 264
back@@ 264
ste@@ 264
biker 264
cake 264
ls 264
gentleman 264
painted 264
structure 264
parked 264
vendor 264
flower 264
various 264
cigarette 264
uses 264
students 264
flagge 260
kniet 260
westen 260
sti@@ 260
ga@@ 260
ä@@ 260
na@@ 260
öffentlichen 260
rad 260
beide 260
raucht 260
tor@@ 260
gi@@ 260
ski@@ 260
go 260
sc@@ 260
no 260
w 260
talks 260
cup 260
vehicle 260
goggles 260
younger 260
smile 260
shot 260
nicht 256
verschneiten 256
wanderer 256
cken 256
ter@@ 256
rutscht 256
gold 256
ring 256
nehmen 256
ferne 256
hang 256
betrachten 256
liegen 256
ble 256
no@@ 256
us 256
stri@@ 256
qu@@ 256
tri@@ 256
bottle 256
flying 256
door 256
lit 256
martial 256
drums 256
lying 256
grün 252
rutsche 252
et 252
hüten 252
grüner 252
gra@@ 252
ö@@ 252
do 252
paint 252
kicking 252
flags 252
eyes 252
bathing 252
hit 252
fahr@@ 248
klettern 248
erwachsener 248
unten 248
gehsteig 248
blonden 248
ange@@ 248
diese 248
su@@ 248
ar 248
et@@ 248
zen 248
same 248
guckt 248
bull 248
balls 248
parking 248
waves 248
safety 248
rocky 248
swinging 248
coming 248
newspaper 248
jackets 248
prepares 248
rain 248
pfad 244
ms 244
lachen 244
mat@@ 244
tür 244
fri@@ 244
tennisball 244
gemüse 244
drinks 244
hi@@ 244
außerhalb 244
cra@@ 244
bärtiger 244
hot 244
conversation 244
gather 244
different 244
bucket 244
practicing 244
costumes 244
gloves 244
indian 244
nacht 240
dass 240
schwarz-weißer 240
cht 240
u-bahn 240
elt 240
y-@@ 240
kommt 240
blumen@@ 240
greift 240
snowboard 240
pass 240
lan@@ 240
bau@@ 240
kleidern 240
ci@@ 240
skateboarding 240
can 240
tie 240
ladder 240
cleaning 240
bunch 240
scene 240
competition 240
roof 240
listening 240
cement 240
reden 236
cu@@ 236
ki@@ 236
blaues 236
männliche 236
lin@@ 236
musiker 236
gelbe 236
surft 236
t-@@ 236
hold 236
wait 236
wet 236
blanket 236
items 236
onlookers 236
staring 236
schwarz-@@ 232
konzert 232
streckt 232
skifahrer 232
zi@@ 232
hilft 232
hammer 232
durch@@ 232
fotografiert 232
cafe 232
il@@ 232
gelbem 232
display 232
mu@@ 232
geh@@ 232
stra@@ 232
go@@ 232
aufschrift 232
stop 232
ks 232
king 232
balloon 232
meal 232
pile 232
lawn 232
railing 232
audience 232
bicycles 232
giving 232
empty 232
desk 232
städtischen 228
ufer 228
pf@@ 228
schlagen 228
licher 228
brunnen 228
sonnenuntergang 228
man@@ 228
lichen 228
beiden 228
flo@@ 228
t-shirts 228
win@@ 228
schreibt 228
cre@@ 228
match 228
basketballspieler 228
bird 228
country 228
leaps 228
military 228
gets 228
umgebung 224
tischen 224
eis 224
hin@@ 224
damen 224
arbeit 224
erin 224
leine 224
haare 224
herr 224
cher 224
schnee@@ 224
überquert 224
waren 224
golf 224
pier 224
surfing 224
wedding 224
bowl 224
sliding 224
gathering 224
sing 224
sports 224
vegetables 224
pointing 224
gu@@ 220
fisch 220
ungs@@ 220
nacktem 220
gerät 220
ku@@ 220
eimer 220
zer@@ 220
gelb 220
jacken 220
gegend 220
dra@@ 220
polizisten 220
versammeln 220
kan@@ 220
class 220
facing 220
feet 220
streets 220
chasing 220
before 220
competing 220
fahrer 216
vater 216
sprechen 216
erwachsenen 216
dern 216
schuhe 216
ke@@ 216
getränk 216
bre@@ 216
gestreiftem 216
uniformen 216
ren@@ 216
handschuhen 216
polizist 216
blonder 216
zimmer 216
gs 216
pan@@ 216
plate 216
lights 216
platform 216
ated 216
huge 216
helmets 216
speaking 216
mask 216
basket 216
tattoo 212
lesen 212
ziehen 212
roll@@ 212
s-@@ 212
garten 212
leeren 212
rot-@@ 212
glas 212
low 212
block 212
el 212
silver 212
bride 212
skier 212
ying 212
tries 212
ging 212
classroom 212
tro@@ 208
du@@ 208
kuchen 208
h 208
badeanzug 208
genießen 208
flie@@ 208
ster@@ 208
stiefeln 208
setzt 208
club 208
ping 208
anzügen 208
tricks 208
purse 208
climbs 208
father 208
seen 208
alley 208
traditional 208
waits 208
sings 208
place 208
pu@@ 204
gel@@ 204
gelbes 204
spe@@ 204
f 204
em@@ 204
ure 204
haufen 204
har@@ 204
was 204
tu@@ 204
york 204
d-@@ 204
4 204
men@@ 204
regen 204
jagt 204
arena 204
asiatischen 204
sort 204
break 204
fighting 204
urban 204
rail 204
kissing 204
counter 204
screen 204
animal 204
musicians 204
alle 200
braut 200
wobei 200
obst 200
sm@@ 200
sch 200
abge@@ 200
ohne 200
kl@@ 200
netz 200
fahrrad@@ 200
schwimmen 200
je@@ 200
gekleideten 200
verschiedene 200
feuer 200
fell 200
kunst@@ 200
kaufen 200
schlagzeug 200
landschaft 200
deck 200
maske 200
singen 200
soldaten 200
studio 200
inmitten 200
site 200
ft 200
runner 200
happy 200
ded 200
stroller 200
skating 200
females 200
schutzhelm 196
grüne 196
pause 196
grauem 196
stein 196
parkplatz 196
dreht 196
wellen 196
kt 196
schwingt 196
ere 196
arme 196
braunem 196
riesigen 196
starrt 196
jo@@ 196
sto@@ 196
taschen 196
blo@@ 196
motor@@ 196
fans 196
op@@ 196
regenschirm 196
talk 196
scooter 196
business 196
walkway 196
hole 196
shoulder 196
lap 196
kneeling 196
sunset 196
throw 196
writing 196
sohn 192
fast 192
schwarzes 192
bergen 192
flasche 192
anderes 192
gebäuden 192
fallen 192
ol@@ 192
r 192
motorradfahrer 192
älteren 192
ner 192
che@@ 192
sches 192
ir@@ 192
blau-@@ 192
keyboard 192
min@@ 192
per@@ 192
gemeinsam 192
kinderwagen 192
waving 192
blowing 192
bald 192
christmas 192
attempting 192
violin 192
gan@@ 188
ul@@ 188
grünes 188
baustelle 188
jugendlicher 188
offenen 188
farben 188
wo 188
ender 188
straßenrand 188
hal@@ 188
cht@@ 188
pflanzen 188
kappe 188
kunden 188
gebiet 188
straßen 188
war@@ 188
kon@@ 188
video 188
schul@@ 188
lächelnd 188
ine 188
cks 188
robe 188
hört 188
straßenecke 188
finger 188
stunt 188
chinese 188
life 188
tables 188
overlooking 188
made 188
course 188
cking 188
ces 188
signs 188
tasse 184
baum@@ 184
che 184
schoß 184
so 184
mikrophon 184
vogel 184
hin 184
bra@@ 184
schw@@ 184
dieser 184
fel@@ 184
aufge@@ 184
zurück 184
umarmt 184
bun@@ 184
orangefarbener 184
ug@@ 184
lu@@ 184
fo@@ 184
pinkfarbenen 184
van 184
blond-haired 184
bubbles 184
says 184
artist 184
officer 184
mirror 184
putzt 180
dar@@ 180
arbeit@@ 180
wal@@ 180
softball 180
bro@@ 180
tet 180
sonnen@@ 180
liches 180
cor@@ 180
schlitten 180
gut 180
gleich 180
ses 180
krawatte 180
ja@@ 180
square 180
renn@@ 180
schreibtisch 180
dunkelhäutiger 180
sun@@ 180
hoodie 180
giant 180
leans 180
balloons 180
fixing 180
cked 180
cal 180
close 180
ausge@@ 176
kurz 176
pin@@ 176
hau@@ 176
ung@@ 176
schatten 176
lkw 176
sandalen 176
baseball@@ 176
schläger 176
gar@@ 176
weiß-@@ 176
berg@@ 176
schlange 176
repariert 176
vordergrund 176
ders 176
fen 176
tw@@ 176
zt 176
stadt@@ 176
ad@@ 176
pitcher 176
karate 176
wo@@ 176
ment 176
skate 176
alone 176
swim 176
faces 176
teenage 176
ched 176
brunette 176
helping 176
wheel 176
leg 176
collar 176
foreground 176
gym 176
over@@ 176
leather 176
umbrellas 176
eh@@ 172
flugzeug 172
ation 172
vollen 172
loch 172
ganz 172
beugt 172
ws 172
hängen 172
ste 172
gekleidetes 172
wel@@ 172
fahrrädern 172
stadium 172
fahrradfahrer 172
sts 172
licht 172
snow@@ 172
poster 172
voll 172
festival 172
podium 172
gegeneinander 172
kurzer 172
electric 172
mud 172
asleep 172
enjoy 172
sticks 172
legs 172
brightly 172
meat 172
dancers 172
headphones 172
einkaufswagen 168
bedeckt 168
verkaufen 168
gro@@ 168
jemandem 168
schüssel 168
ssi@@ 168
reiten 168
spielzeug@@ 168
steigen 168
lächelnde 168
ppen 168
är@@ 168
len 168
erten 168
beg@@ 168
dri@@ 168
äu@@ 168
asiatisches 168
schüler 168
balanciert 168
skater 168
dr@@ 168
squ@@ 168
bahn@@ 168
schiedsrichter 168
toys 168
footballspieler 168
skiing 168
pferden 168
football-spieler 168
goal 168
photographer 168
washing 168
sandals 168
among 168
swings 168
makes 168
officers 168
office 168
diving 168
falling 168
bat 168
passing 168
wears 168
cker 164
kreis 164
bs 164
dessen 164
winkt 164
badehose 164
küsst 164
klein@@ 164
flip 164
gegenüber 164
weibliche 164
angel@@ 164
ze 164
höhe 164
spiegel 164
erde 164
fällt 164
chi@@ 164
stre@@ 164
ur 164
ph@@ 164
row 164
künstler 164
par@@ 164
zeit 164
fall 164
singer 164
males 164
multicolored 164
dark-haired 164
held 164
dirty 164
church 164
friend 164
barefoot 164
hiking 164
musical 164
heads 164
doorway 164
felswand 160
ne 160
schulter 160
strecke 160
gla@@ 160
bekleidung 160
ungen 160
zeichen 160
lt 160
heben 160
ell@@ 160
( 160
z 160
café 160
lauf@@ 160
sachen 160
halsband 160
schlag 160
sand@@ 160
klassenzimmer 160
orangefarbenem 160
chef 160
gre@@ 160
ves 160
surfbrett 160
hellbrauner 160
mobiltelefon 160
cur@@ 160
sport 160
here 160
performance 160
move 160
reaching 160
ating 160
drawing 160
leash 160
accordion 160
throws 160
canoe 160
picking 160
traffic 160
cloth 160
overall 156
iert 156
telefon 156
tz@@ 156
bt 156
belebte 156
fer 156
land@@ 156
gerüst 156
wor@@ 156
handstand 156
groß@@ 156
schaufel 156
5 156
auto@@ 156
unbefestigten 156
) 156
bäume 156
mon@@ 156
fleisch 156
run@@ 156
kar@@ 156
tanz 156
helmen 156
steine 156
plastik@@ 156
beige 156
ball@@ 156
wurf 156
ecke 156
! 156
spar@@ 156
kanu 156
oberteilen 156
per 156
tion 156
overalls 156
bri@@ 156
sting 156
lone 156
below 156
shallow 156
members 156
relaxing 156
daughter 156
digging 156
well 156
nach@@ 152
aussieht 152
davor 152
seines 152
kajak 152
zeigen 152
leuchtend 152
mm@@ 152
ben@@ 152
hinter@@ 152
onen 152
bade@@ 152
rolling 152
steigt 152
schuh 152
fall@@ 152
ff@@ 152
me 152
bein 152
hauses 152
ats 152
yo@@ 152
redet 152
tre@@ 152
durchs 152
deep 152
gucken 152
ct@@ 152
kick 152
garden 152
catching 152
moving 152
hugging 152
ved 152
atop 152
shovel 152
catches 152
gives 152
cat 152
microscope 152
passes 152
foot 152
bicyclist 152
schlauch 148
hunden 148
dreadlocks 148
ene 148
x 148
ze@@ 148
mit@@ 148
rand 148
verschiedenen 148
gepflasterten 148
spaß 148
makeup 148
ort 148
stadion 148
rennstrecke 148
küssen 148
pen 148
eri@@ 148
mer@@ 148
app@@ 148
schnauze 148
ce@@ 148
gate 148
sweeping 148
resting 148
prepare 148
lab 148
sleeps 148
sed 148
shows 148
sled 148
climb 148
paved 148
fun 148
drum 148
pping 148
leaping 148
flies 148
männlicher 144
farbenfrohen 144
schönen 144
form@@ 144
igen 144
steinen 144
grasbewachsenen 144
irgend@@ 144
lastwagen 144
schultern 144
ve@@ 144
seifenblasen 144
gten 144
teller 144
mikroskop 144
gelegt 144
museum 144
fahrt 144
wettkampf 144
braun 144
fre@@ 144
gri@@ 144
tanktop 144
kai 144
tier 144
x@@ 144
len@@ 144
asiatisch 144
tochter 144
ver 144
puck 144
fu@@ 144
ut 144
ringen 144
reiter 144
hel@@ 144
musik@@ 144
formal 144
ans 144
basketball@@ 144
lilafarbenen 144
books 144
these 144
pond 144
sculpture 144
individuals 144
lies 144
trunks 144
cting 144
desert 144
wear 144
lots 144
splashing 144
upside 144
cold 144
conversing 144
teeth 144
coats 144
photograph 144
regen@@ 140
bis 140
stü@@ 140
cam@@ 140
fläche 140
kirche 140
wir@@ 140
lau@@ 140
kocht 140
kauft 140
katze 140
än@@ 140
kommen 140
grün-@@ 140
akkordeon 140
ent 140
fußballspiel 140
violetten 140
chern 140
det 140
plan@@ 140
gang 140
dd@@ 140
freunde 140
klippe 140
rest 140
küste 140
spielfeld 140
blatt 140
golden 140
cro@@ 140
student 140
carnival 140
jogging 140
how 140
wrestling 140
customers 140
telescope 140
closed 140
town 140
round 140
gun 140
points 140
underneath 140
tire 140
plants 140
brett 136
wohn@@ 136
cke 136
hellen 136
gegnerischen 136
freunden 136
braun-weißer 136
teich 136
ers@@ 136
schaukelt 136
bedient 136
farbenen 136
ate 136
innen 136
unterwegs 136
parkbank 136
karren 136
sel@@ 136
tuch 136
gasse 136
ß@@ 136
grauer 136
ser 136
kel@@ 136
bemalt 136
nur 136
bur@@ 136
plane 136
bla@@ 136
center 136
inter@@ 136
aussehende 136
cheerleaders 136
dinner 136
local 136
mat 136
cane 136
cyclist 136
opposing 136
themselves 136
project 136
without 136
shoulders 136
cut 136
dances 136
hiker 136
waters 136
eat 136
including 136
shoe 136
schutzhelmen 132
instrumenten 132
hunde@@ 132
sieben 132
sam@@ 132
beleuchteten 132
zusammen@@ 132
schneiden 132
bringt 132
bil@@ 132
umarmen 132
theke 132
arti@@ 132
kampf@@ 132
langem 132
lie@@ 132
schwimmbrille 132
trampolin 132
ser@@ 132
reifen 132
entspannt 132
ton@@ 132
instrumente 132
geige 132
stehenden 132
damit 132
kopfhörer 132
hol@@ 132
holt 132
lea@@ 132
jockey 132
mannschaften 132
ant 132
ven 132
ober@@ 132
flaggen 132
moped 132
opening 132
pipe 132
booth 132
driver 132
circle 132
crosswalk 132
seat 132
straw 132
crying 132
pulled 132
infant 132
wooded 132
mural 132
fight 132
trampoline 132
matching 132
racket 132
taken 132
produce 132
ely 132
runners 132
skiern 128
objekt 128
skulptur 128
far@@ 128
verkäufer 128
einge@@ 128
verwendet 128
all@@ 128
umge@@ 128
dies 128
sol@@ 128
sli@@ 128
jongliert 128
gh@@ 128
u 128
bl@@ 128
berge 128
vers@@ 128
ous 128
sor@@ 128
scht 128
tänzer 128
1@@ 128
enen 128
wei@@ 128
tur@@ 128
schlamm 128
kor@@ 128
itt@@ 128
not 128
ell 128
fol@@ 128
hüpft 128
lauf 128
ens 128
lift 128
band@@ 128
kes 128
fe 128
fle@@ 128
becher 128
ters 128
teenagers 128
sha@@ 128
stuffed 128
picnic 128
gymnast 128
covering 128
sewing 128
cted 128
nose 128
ching 128
shed 128
bicyclists 128
athlete 128
ors 128
trash 128
attempts 128
performer 128
surface 128
eingang 124
kaffee 124
barfuß 124
grillt 124
fahnen 124
links 124
veranda 124
bläst 124
geben 124
spa@@ 124
kü@@ 124
bauen 124
fro@@ 124
projekt 124
sitzende 124
bilder 124
linie 124
glas@@ 124
and@@ 124
reparieren 124
fäl@@ 124
tt@@ 124
wür@@ 124
dunkler 124
rechts 124
lächelnder 124
feldweg 124
son@@ 124
ruht 124
ft@@ 124
spritzt 124
schn@@ 124
sse 124
ast 124
taxi 124
fern 124
fotografieren 124
metall 124
moment 124
feuer@@ 124
hören 124
bei@@ 124
auftritt 124
rollerblades 124
dre@@ 124
tex@@ 124
raft 124
arm@@ 124
schießt 124
rugby 124
dancer 124
hoop 124
wing 124
skis 124
lays 124
boxes 124
blouse 124
himself 124
hikers 124
sandy 124
chases 124
cow 124
goes 124
slope 124
balcony 124
pushes 124
lunch 124
help 124
pedestrians 124
style 124
third 124
oriental 124
use 124
bogen 120
auch 120
schüttelt 120
sänger 120
werbung 120
goalie 120
dunkel@@ 120
mahlzeit 120
schau@@ 120
bekommt 120
position 120
handtasche 120
pri@@ 120
amerikanische 120
wüste 120
farbe 120
seil@@ 120
tennis@@ 120
gem 120
sitz@@ 120
tops 120
nase 120
geld 120
chen@@ 120
taucht 120
san@@ 120
schla@@ 120
haar@@ 120
fra@@ 120
beinen 120
hellblauen 120
schwimmer 120
tigen 120
wandert 120
cowboyhut 120
dun@@ 120
verfolgt 120
berührt 120
geschlossenen 120
stift 120
sal@@ 120
ban@@ 120
bedeckten 120
pit@@ 120
stern 120
rin@@ 120
stoff 120
kopftuch 120
springbrunnen 120
london 120
dan@@ 120
ty 120
hockt 120
ite 120
garage 120
clear 120
aussehender 120
dunkelhäutige 120
cs 120
sportler 120
ali@@ 120
asiate 120
piano 120
shooting 120
sco@@ 120
hula 120
staircase 120
puts 120
log 120
seven 120
turn 120
indoor 120
device 120
bent 120
pulls 120
neck 120
speaks 120
rad@@ 116
lö@@ 116
ran@@ 116
überfüllten 116
ie@@ 116
behälter 116
zwei@@ 116
va@@ 116
tennisspieler 116
reinigt 116
blocks 116
gr@@ 116
innen@@ 116
fin@@ 116
graben 116
end@@ 116
pra@@ 116
iten 116
teppich 116
hü@@ 116
kn@@ 116
äh@@ 116
linken 116
gezogen 116
nt 116
personengruppe 116
scha@@ 116
fer@@ 116
kampf 116
wein@@ 116
banner 116
gold@@ 116
terrasse 116
teilen 116
deut@@ 116
ati@@ 116
geln 116
wettbewerb 116
bringen 116
frei@@ 116
ing@@ 116
tr@@ 116
mänteln 116
skateboards 116
native 116
feier 116
fil@@ 116
sea@@ 116
nice 116
gers 116
ction 116
pot 116
saxophone 116
evening 116
boats 116
wetsuit 116
heavy 116
gentlemen 116
enjoys 116
swims 116
drives 116
shaking 116
grocery 116
marching 116
kinder@@ 112
streifen 112
anzu@@ 112
bel@@ 112
mp@@ 112
strand@@ 112
kten 112
heraus 112
ker@@ 112
pe 112
ori@@ 112
fahrräder 112
fan@@ 112
lei@@ 112
sses 112
ot@@ 112
bli@@ 112
pol@@ 112
ßen 112
koch 112
salto 112
müll 112
traditioneller 112
öffnet 112
feuerwehr@@ 112
endes 112
schießen 112
lederjacke 112
stell@@ 112
vorbei@@ 112
sub@@ 112
muster 112
ked 112
geländemotorrad 112
felsigen 112
let 112
ffen 112
part 112
tzen 112
zeichnet 112
üben 112
verkehr 112
spi@@ 112
umzug 112
tanz@@ 112
5@@ 112
kissen 112
hinab 112
winter@@ 112
bat@@ 112
diesem 112
sandwich 112
asiaten 112
football@@ 112
spiels 112
pinkfarbenem 112
tige 112
sack 112
can@@ 112
start 112
cha@@ 112
th 112
3@@ 112
ea@@ 112
age 112
asiatin 112
moves 112
sheet 112
pouring 112
kayak 112
ledge 112
jean 112
ped 112
kicks 112
ship 112
red-haired 112
porch 112
brown-haired 112
puddle 112
protective 112
water@@ 112
type 112
stream 112
tracks 112
khaki 112
garb 112
fingers 112
waterfall 112
wrapped 112
cloudy 112
fair 112
hangs 112
shaving 112
robes 112
foreign 112
steep 112
laundry 112
hu@@ 108
gesch@@ 108
gießt 108
kerl 108
karte 108
tru@@ 108
hockey@@ 108
nachdem 108
pferde 108
blätter 108
hellbraunen 108
pfütze 108
ckten 108
wäscht 108
kel 108
dieses 108
rothaarige 108
mor@@ 108
: 108
bach 108
sters 108
wit@@ 108
boards 108
balkon 108
nassen 108
bad 108
flug@@ 108
id 108
wine 108
hl@@ 108
mound 108
pen@@ 108
schnell 108
gleitet 108
fest@@ 108
untersucht 108
sprin@@ 108
cheerleader 108
kann 108
hun@@ 108
winterkleidung 108
stru@@ 108
zähne 108
2@@ 108
rück@@ 108
clo@@ 108
dro@@ 108
schirmen 108
defen@@ 108
vers 108
com@@ 108
ops 108
denim 108
polo 108
kiss 108
poles 108
sale 108
paddling 108
shoveling 108
reaches 108
try 108
bread 108
luggage 108
eye 108
red-hair 108
ful 108
birds 108
checking 108
opposite 108
attached 108
palm 108
backyard 108
sea 108
put 108
soldiers 108
skirts 108
colors 108
boun@@ 108
airplane 108
ct 108
pfosten 104
mal@@ 104
allein 104
spor@@ 104
fuß@@ 104
paddelt 104
ei 104
fun@@ 104
gg@@ 104
braunes 104
mel@@ 104
stapel 104
bikers 104
bunte 104
beieinander 104
bal@@ 104
farbener 104
kickt 104
stellen 104
rädern 104
zunge 104
dis@@ 104
horn 104
fü@@ 104
hals 104
schlafen 104
übt 104
stä@@ 104
will 104
wurde 104
skateboardfahrer 104
bullen 104
hockeyspieler 104
weitere 104
sitzender 104
schen@@ 104
le-@@ 104
box@@ 104
coach 104
&amp; 104
schle@@ 104
tan@@ 104
passanten 104
you 104
kurve 104
dol@@ 104
col@@ 104
but@@ 104
tools 104
jerseys 104
flight 104
frame 104
inflatable 104
clean 104
curb 104
tongue 104
string 104
wheelchair 104
soldier 104
laugh 104
balancing 104
windows 104
cones 104
camouflage 104
pavement 104
image 104
wind@@ 100
haariger 100
beton 100
viel 100
rä@@ 100
farbigen 100
ob 100
brünette 100
schuh@@ 100
lassen 100
laptops 100
chter 100
luftballons 100
kampfsport 100
getränke 100
becken 100
amerikanischen 100
mobile 100
wer 100
vie@@ 100
gräbt 100
teleskop 100
büro 100
silhouette 100
warm 100
bräutigam 100
koffer 100
fußgänger 100
frisch 100
sees 100
cowboys 100
gs@@ 100
tafel 100
rasiert 100
tau@@ 100
gezeigt 100
touristen 100
fä@@ 100
gel 100
ssion 100
din@@ 100
radrennen 100
wer@@ 100
ppe 100
helfen 100
orange-@@ 100
derby 100
vollführt 100
plant 100
tho@@ 100
rit@@ 100
.@@ 100
0@@ 100
magazine 100
bmx 100
spray 100
ballerina 100
bubble 100
summer 100
santa 100
color 100
living 100
floral 100
tractor 100
happily 100
courtyard 100
eats 100
shade 100
swimsuit 100
head@@ 100
railroad 100
walls 100
juggling 100
stool 100
floating 100
musician 100
buying 100
step 100
curly 100
laughs 100
fresh 100
fabric 100
ned 100
motorcycles 100
married 100
bottom 100
professional 100
riders 100
sell 100
cyclists 100
ckter 96
ich 96
ber 96
polizei@@ 96
kehrt 96
schöne 96
baumstamm 96
park@@ 96
hochzeit@@ 96
arbeitskleidung 96
hinterher 96
ballons 96
wischt 96
fischen 96
kuh 96
kante 96
bel 96
schreit 96
bewegt 96
spitze 96
fl@@ 96
matte 96
können 96
benutzen 96
scheibe 96
künst@@ 96
restaurants 96
gelb-@@ 96
tte 96
sitzenden 96
fen@@ 96
geschirr 96
rollstuhl 96
kisten 96
turnhalle 96
hotel 96
müll@@ 96
wasserfall 96
air@@ 96
hinaus 96
angelt 96
pizza 96
stan@@ 96
0 96
trommel 96
lebensmittel 96
grau 96
handtuch 96
straßenkünstler 96
abzu@@ 96
form 96
we 96
goldenen 96
legen 96
sum@@ 96
banan@@ 96
besen 96
darunter 96
rock@@ 96
v 96
gruppen 96
cat@@ 96
kat@@ 96
runden 96
ami@@ 96
hellhäutiger 96
scra@@ 96
barbecue 96
por@@ 96
pla@@ 96
neoprenanzug 96
vo@@ 96
flip-flops 96
backwards 96
guard 96
ery 96
scaffolding 96
carriage 96
surf 96
cheering 96
pit 96
sized 96
multiple 96
closeup 96
either 96
acoustic 96
garbage 96
bucking 96
pair 96
marketplace 96
tube 96
groom 96
appear 96
hurdle 96
socks 96
touching 96
nap 96
suspended 96
knee 96
shown 96
bandanna 96
goods 96
vely 96
pajamas 96
bü@@ 92
stop@@ 92
lang@@ 92
gemälde 92
glücklich 92
konzentriert 92
rechten 92
ziert 92
balken 92
feiern 92
stro@@ 92
baut 92
kreuzung 92
fal@@ 92
wander@@ 92
plattform 92
tel 92
geschäfts 92
braunhaarige 92
hütte 92
sucht 92
kochen 92
acht 92
nahaufnahme 92
chinesischen 92
blondem 92
richtet 92
vorbeigehen 92
laub 92
entfernt 92
gesäumten 92
alleine 92
mitglieder 92
star@@ 92
ang@@ 92
tern 92
tennisschläger 92
smo@@ 92
leder@@ 92
mer 92
ht 92
stu@@ 92
umher 92
studenten 92
candy 92
sä@@ 92
tisch@@ 92
9@@ 92
ie 92
steckt 92
geschmin@@ 92
kapuzenpulli 92
uni@@ 92
jungs 92
berges 92
salon 92
grin@@ 92
hen 92
jagen 92
ven@@ 92
crew 92
live 92
ärmellosen 92
drummer 92
verkleidet 92
training 92
money 92
os 92
ars 92
skates 92
amp 92
snack 92
kers 92
post 92
heels 92
mom 92
bow 92
stove 92
plaza 92
advertisement 92
kneels 92
fenced 92
dining 92
raised 92
underwater 92
hood 92
pped 92
direction 92
escalator 92
climber 92
pes 92
elling 92
animals 92
hooded 92
welding 92
caught 92
long-haired 92
japanese 92
backpacks 92
serving 92
airport 92
dry 92
bling 92
aring 92
sheep 92
german 92
paints 92
hay 92
landscape 92
towel 92
fully 92
ears 92
chain 92
sted 92
turn@@ 88
gn@@ 88
sin@@ 88
waldgebiet 88
rea@@ 88
geworfen 88
schlä@@ 88
fliegen 88
offenem 88
lächelndes 88
karate@@ 88
mützen 88
zwe@@ 88
richten 88
kle@@ 88
mittel@@ 88
freund 88
topf 88
glück@@ 88
skleidung 88
einkauf@@ 88
genen 88
ziegel@@ 88
pl@@ 88
peace 88
wohnzimmer 88
küchen@@ 88
besu@@ 88
lehnen 88
kalten 88
figur 88
bow@@ 88
kil@@ 88
bällen 88
sitz 88
mü@@ 88
gläsern 88
befestigt 88
texas 88
werk@@ 88
motorrädern 88
gegenstände 88
trainiert 88
del@@ 88
rot-weißen 88
ör@@ 88
stoff@@ 88
röcken 88
abend 88
kin@@ 88
weit 88
militär@@ 88
hl 88
stark 88
treffen 88
indische 88
folgt 88
fotograf 88
els 88
top@@ 88
essen@@ 88
pur@@ 88
colle@@ 88
setzen 88
weihnachtsbaum 88
hör@@ 88
rolltreppe 88
ket@@ 88
slo@@ 88
sur@@ 88
spielerin 88
hlen 88
jemanden 88
ble@@ 88
sw@@ 88
first 88
zen@@ 88
eins 88
gewand 88
afrikanische 88
8 88
schildern 88
desig@@ 88
assi@@ 88
skatepark 88
brea@@ 88
boxer 88
bass 88
gas 88
sets 88
geschäftigen 88
stadtstraße 88
tin@@ 88
good 88
print 88
2012 88
operating 88
neon 88
read 88
grilling 88
ary 88
things 88
shes 88
obstacle 88
vehicles 88
brush 88
brushing 88
ear@@ 88
gravel 88
wed 88
seems 88
ings 88
participating 88
amusement 88
bending 88
individual 88
shaped 88
checkered 88
thrown 88
ning 88
orchestra 88
teacher 88
lines 88
ged 88
ic 88
referee 88
caucasian 88
decorated 88
athletic 88
examining 88
traktor 84
poli@@ 84
wat@@ 84
geri@@ 84
silbernen 84
schwarz-weißen 84
kre@@ 84
schaufelt 84
ern@@ 84
nähert 84
rast 84
mehr@@ 84
hölzernen 84
bushaltestelle 84
hocke 84
kä@@ 84
vier@@ 84
anti@@ 84
weint 84
daumen 84
ssen@@ 84
gehalten 84
bahnsteig 84
bücher 84
part@@ 84
baseballkappe 84
ihres 84
bewegung 84
bin@@ 84
mitarbeiter 84
blei@@ 84
golf@@ 84
brot 84
ße 84
aufen 84
rau@@ 84
bänken 84
speisen 84
angezogen 84
verkauf 84
füßen 84
schutz@@ 84
papier@@ 84
kunststücke 84
garten@@ 84
tief 84
gelehnt 84
streichelt 84
tieren 84
span@@ 84
steinmauer 84
wänden 84
decken 84
ute 84
verkehr@@ 84
dunkelhaarige 84
kiste 84
protest 84
außen@@ 84
lä@@ 84
foto@@ 84
haltung 84
wild@@ 84
off@@ 84
werkzeug 84
kopf@@ 84
geschenk 84
ner@@ 84
tattoos 84
genden 84
plakat 84
theater 84
sonnenbrillen 84
hilfe 84
seiten 84
wh@@ 84
steilen 84
dig@@ 84
schäferhund 84
spielern 84
kie@@ 84
wie@@ 84
also 84
bildschirm 84
pitch 84
cello 84
snowboarding 84
jugendliche 84
6 84
wandbild 84
ani@@ 84
ns 84
domin@@ 84
she@@ 84
kahlköpfiger 84
komplett 84
-up 84
trägerhemd 84
stones 84
ity 84
1 84
up@@ 84
ny 84
ad 84
ac@@ 84
lar 84
tourist 84
out@@ 84
res 84
motocross 84
model 84
ropes 84
atv 84
map 84
crouches 84
tub 84
firefighters 84
bles 84
passengers 84
rowing 84
benches 84
harness 84
compete 84
attempt 84
scuba 84
hitting 84
rests 84
turning 84
cone 84
feeding 84
muddy 84
button 84
hallway 84
only 84
practice 84
tourists 84
chest 84
haircut 84
presentation 84
photographs 84
sharing 84
sticking 84
wagon 84
opponent 84
rec@@ 84
racer 84
blättern 80
weiß@@ 80
ju@@ 80
kra@@ 80
kletterer 80
gummi@@ 80
rohr 80
gesi@@ 80
blond@@ 80
haariges 80
nu@@ 80
joggen 80
kla@@ 80
geparkt 80
ess@@ 80
schiff 80
menschengruppe 80
sammelt 80
gesichts@@ 80
fli@@ 80
kamera@@ 80
ähn@@ 80
joggt 80
schmutzigen 80
teil@@ 80
gepäck 80
puppe 80
sich@@ 80
oni@@ 80
del 80
piste 80
hn@@ 80
pul@@ 80
jüngeren 80
krei@@ 80
chtet 80
pel@@ 80
labor 80
bär@@ 80
kranken@@ 80
banjo 80
ohr@@ 80
ppt 80
zer 80
tig 80
kopfhörern 80
go-@@ 80
soldat 80
zuschauermenge 80
ausgestreckten 80
hr@@ 80
hürde 80
tee 80
getränken 80
vorn 80
schnurrbart 80
scheinen 80
free 80
stöcken 80
laub@@ 80
orchester 80
digen 80
quarterback 80
ler@@ 80
wäsche 80
song 80
graffitis 80
schaft@@ 80
brust 80
gassi 80
umhang 80
malen 80
klavier 80
werk 80
aufführung 80
langhaariger 80
mö@@ 80
verschieden@@ 80
beutel 80
dert 80
ellen 80
halb 80
hugs 80
stier 80
wunderschönen 80
braun-@@ 80
schule 80
leggings 80
stet 80
geräten 80
heißen 80
hindernis 80
laster 80
cricket 80
ale 80
yoga 80
container 80
pil@@ 80
balance 80
sty@@ 80
fan 80
inten@@ 80
werfer 80
ischen 80
college 80
birthday 80
apple 80
material 80
pärchen 80
ahead 80
ard 80
ally 80
ry 80
machinery 80
wn 80
dish 80
hall 80
pull 80
but 80
loading 80
cleans 80
fruits 80
eight 80
tile 80
jumpsuit 80
carpet 80
groups 80
ced 80
figure 80
ear 80
jungle 80
action 80
mustache 80
motorcyclist 80
navy 80
long-sleeved 80
wire 80
craft 80
bars 80
patio 80
racetrack 80
fly 80
tool 80
sink 80
wide 80
policeman 80
headscarf 80
aged 80
speech 80
bathroom 80
turns 80
chase 80
guitars 80
viewing 80
sporting 80
boxing 80
herd 76
ften 76
klasse 76
typen 76
neon@@ 76
seilen 76
kerzen 76
gelände@@ 76
fern@@ 76
g-@@ 76
anlage 76
lied 76
einzelner 76
deln 76
teig 76
hell 76
füllt 76
nähmaschine 76
farm 76
erd@@ 76
städtische 76
blume 76
chte 76
schutzbrille 76
ribbon 76
aber 76
deck@@ 76
uf@@ 76
szene 76
wan@@ 76
ckigen 76
rudert 76
bowlingbahn 76
dia@@ 76
john 76
ßt 76
stehende 76
experiment 76
sion 76
beschäftigt 76
violettem 76
schmutzi@@ 76
fischer 76
wen@@ 76
vorrichtung 76
vorbeifährt 76
versch@@ 76
kegel 76
video@@ 76
kunstwerk 76
rosafarbenem 76
fr@@ 76
flughafen 76
füße 76
lampe 76
rü@@ 76
herum@@ 76
anlegestelle 76
füttert 76
volleyball@@ 76
flaschen 76
rubber 76
mann@@ 76
sho@@ 76
gitarrist 76
hula-hoop-reifen 76
und@@ 76
jeep 76
älteres 76
gelände 76
schaft 76
post@@ 76
let@@ 76
see@@ 76
k-@@ 76
chor 76
mädchens 76
stö@@ 76
treppen 76
nickerchen 76
direkt 76
spani@@ 76
spü@@ 76
za@@ 76
schaufenster@@ 76
knien 76
bauch 76
aben@@ 76
glo@@ 76
ey@@ 76
dy 76
baseballmütze 76
ziel 76
rede 76
sportveranstaltung 76
china 76
kam@@ 76
apartment 76
radfahrern 76
kro@@ 76
super@@ 76
er-@@ 76
bare 76
tze 76
dicht 76
greifen 76
falls 76
geb@@ 76
turban 76
angel 76
backstein@@ 76
stretching 76
belt 76
hän@@ 76
lit@@ 76
bor@@ 76
e-gitarre 76
lehrer 76
bern 76
torhüter 76
army 76
pilot 76
mall 76
lacrosse 76
cross@@ 76
bin 76
swe@@ 76
ance 76
coo@@ 76
fire@@ 76
space 76
bushes 76
beam 76
member 76
snow-covered 76
lane 76
ered 76
intersection 76
boardwalk 76
discussion 76
ming 76
case 76
ceiling 76
dge 76
baskets 76
swimmer 76
routine 76
fancy 76
cing 76
observe 76
beverage 76
stopped 76
narrow 76
atten@@ 76
bath 76
half 76
petting 76
great 76
indoors 76
shoot 76
dune 76
tents 76
hillside 76
dark-skinned 76
slides 76
eastern 76
neighborhood 76
crouching 76
cally 76
tattooed 76
possibly 76
leaving 76
herself 76
smoke 76
trumpet 76
medical 76
vendors 76
horseback 76
sells 76
maschinen 72
oli@@ 72
chts 72
spring 72
pick@@ 72
booten 72
ß 72
bä@@ 72
bowlingkugel 72
einkaufszentrum 72
aufzu@@ 72
halle 72
aufblasbaren 72
satz 72
schwimmbad 72
knie@@ 72
aufs 72
shi@@ 72
uts 72
geblümten 72
leit@@ 72
eltern 72
kariertem 72
clowns 72
han@@ 72
beine 72
pack 72
sportkleidung 72
trompete 72
wein 72
steinigen 72
rot@@ 72
ausstellung 72
ssenen 72
sicht@@ 72
rucksäcken 72
los 72
high-@@ 72
oping 72
dinge 72
afrikanischer 72
cal@@ 72
gewässers 72
ron@@ 72
bru@@ 72
amüsieren 72
angelrute 72
liegenden 72
socken 72
herunter@@ 72
a-@@ 72
kno@@ 72
strohhut 72
beißt 72
heu 72
schmuck 72
mechani@@ 72
ziel@@ 72
karten 72
fotografen 72
pack@@ 72
organi@@ 72
don@@ 72
fran@@ 72
blau-weißen 72
messer 72
them@@ 72
wett@@ 72
hinterhof 72
gewehr 72
mithilfe 72
ohren 72
schlagzeuger 72
lebensmittel@@ 72
kick@@ 72
schu@@ 72
u-bahn-@@ 72
bearbeitet 72
kaut 72
geschäfts@@ 72
för@@ 72
yer 72
marschiert 72
schwach 72
alen 72
schwarz-weiß 72
mau@@ 72
lachend 72
rennwagen 72
pper 72
metal@@ 72
handschuh 72
kette 72
berühren 72
regenschirmen 72
ffs 72
sau@@ 72
halb@@ 72
findet 72
cap@@ 72
keep 72
geschäften 72
formation 72
barri@@ 72
erte 72
finish 72
indi@@ 72
schein@@ 72
anhat 72
finger@@ 72
häusern 72
chefs 72
mountainbike 72
feuerwehrmänner 72
til@@ 72
histor@@ 72
got 72
batter 72
oper@@ 72
computers 72
conference 72
4@@ 72
que 72
heart 72
dead 72
mohawk 72
more 72
backs 72
entrance 72
saw 72
mixing 72
folding 72
card 72
helps 72
hospital 72
buy 72
fencing 72
bly 72
cans 72
clay 72
wheels 72
vil 72
celebrating 72
squatting 72
nets 72
excited 72
ornate 72
youth 72
uniformed 72
cardboard 72
pieces 72
outstretched 72
rela@@ 72
lay 72
shepherd 72
bottles 72
puppy 72
guitarist 72
cts 72
choir 72
funny 72
dishes 72
seats 72
buckets 72
ys 72
maroon 72
mostly 72
microphones 72
hüte 68
gehende 68
zeit@@ 68
grillen 68
sprung@@ 68
ente 68
schwenkt 68
krie@@ 68
jeans@@ 68
zeitschrift 68
rahmen 68
bestehende 68
motor 68
ka 68
blasen 68
blü@@ 68
haus@@ 68
fahne 68
mischer 68
flügeln 68
bet@@ 68
riesige 68
ed@@ 68
zäh@@ 68
tiere 68
körben 68
schweißt 68
giert 68
farbige 68
ari@@ 68
erer 68
zieren 68
waffe 68
zuge@@ 68
bälle 68
fenster@@ 68
schwarz-brauner 68
gol@@ 68
wissenschaft@@ 68
beigefarbenen 68
feuert 68
helme 68
saal 68
abendessen 68
sei@@ 68
graue 68
hei@@ 68
bluejeans 68
köpfen 68
trainer 68
flachen 68
sperr@@ 68
reicht 68
saxophon 68
packt 68
auszu@@ 68
schrei@@ 68
jüngere 68
sandstrand 68
kurs 68
dunkelblauen 68
fahrgeschäft 68
griff 68
hochzeit 68
cki@@ 68
jack@@ 68
gespräch 68
klettergerüst 68
flüssigkeit 68
drachen 68
grau@@ 68
jahrmarkt 68
wunder@@ 68
ob@@ 68
cher@@ 68
fröh@@ 68
picknicktisch 68
boxen 68
stufe 68
medi@@ 68
lle 68
kameras 68
tier@@ 68
äl@@ 68
stab 68
dj 68
fegt 68
blu@@ 68
ca 68
feuerwehrmann 68
elle 68
bum@@ 68
wagens 68
outdoor-@@ 68
star 68
patient 68
haarige 68
bau 68
platte 68
football-@@ 68
offenbar 68
tiger 68
daneben 68
transpor@@ 68
gli@@ 68
spielkleidung 68
gegenseitig 68
factory 68
ce-@@ 68
geländemotorradfahrer 68
bron@@ 68
engine 68
roller-@@ 68
sel 68
wheelie 68
backsteingebäude 68
kopfüber 68
str@@ 68
rings 68
dreck 68
para@@ 68
blazer 68
stat@@ 68
hoops 68
castle 68
ments 68
reflective 68
dire@@ 68
sword 68
flipping 68
doctor 68
pan 68
cla@@ 68
stack 68
cuts 68
ght 68
leading 68
sleeveless 68
fisherman 68
stroll 68
doors 68
rink 68
pick 68
bear 68
rural 68
blows 68
tered 68
spraying 68
vegetable 68
firetruck 68
rough 68
tly 68
bowls 68
pine 68
cloth@@ 68
polka 68
item 68
grinding 68
ethnic 68
float 68
stripes 68
stares 68
zing 68
library 68
unds 68
inspecting 68
comfor@@ 68
calf 68
broom 68
coloring 68
smokes 68
spinning 68
scenery 68
ctors 68
furniture 68
hair@@ 68
storefront 68
ates 68
entlang@@ 64
geldbörse 64
ette 64
körper 64
sportwagen 64
gern 64
waschen 64
hinunter@@ 64
zug@@ 64
pfan@@ 64
operation 64
köche 64
paddeln 64
druck 64
farbenfroher 64
jeansjacke 64
team@@ 64
mes 64
brandung 64
brief@@ 64
kilt 64
reinigen 64
fels@@ 64
stöcke 64
baby@@ 64
rollt 64
lern 64
einzel@@ 64
wand@@ 64
vorne 64
sicht 64
drückt 64
büro@@ 64
feld@@ 64
bunt 64
bon@@ 64
musi@@ 64
wandern 64
planscht 64
stangen 64
welpen 64
gleisen 64
arbeits@@ 64
treibt 64
gelb@@ 64
schwer@@ 64
wasserflasche 64
computer@@ 64
pflü@@ 64
schlafanzug 64
köpfige 64
cape 64
geschäftskleidung 64
dunkelhaariger 64
sanddüne 64
ttern 64
mittag 64
koch@@ 64
bekommen 64
catcher 64
hor@@ 64
kir@@ 64
frisbeescheibe 64
kli@@ 64
techni@@ 64
arch@@ 64
sprüh@@ 64
br@@ 64
sängerin 64
führung 64
noch 64
ation@@ 64
zone 64
hö@@ 64
wirbelt 64
bewölkten 64
grimasse 64
ken@@ 64
pun@@ 64
waschsalon 64
ll@@ 64
beleuchtung 64
times 64
herr@@ 64
verlassen 64
war 64
fußballfeld 64
plat@@ 64
flöte 64
parkt 64
schmetter@@ 64
kurz@@ 64
leicht 64
cli@@ 64
pt 64
my 64
wife 64
rasi@@ 64
dose 64
begutachtet 64
ets 64
kni@@ 64
wettrennen 64
kalb 64
dam@@ 64
herab 64
schö@@ 64
expre@@ 64
setz@@ 64
kugel 64
bunter 64
bild@@ 64
tigt 64
rod 64
bahnhof 64
lat@@ 64
ele@@ 64
rennauto 64
entspannen 64
statt 64
ballon 64
trainieren 64
jubeln 64
untersuchen 64
ado@@ 64
straßenhändler 64
grasfläche 64
iel@@ 64
khaki@@ 64
que@@ 64
wn@@ 64
red@@ 64
marschieren 64
name 64
paint@@ 64
cool 64
skateboard@@ 64
badewanne 64
händler 64
turnerin 64
jockeys 64
story 64
skil@@ 64
care 64
ator 64
ford 64
trucks 64
cru@@ 64
elephant 64
come 64
downtown 64
ence 64
tied 64
broken 64
candles 64
duck 64
approaching 64
intently 64
sweat@@ 64
chalk 64
ures 64
spread 64
crane 64
act 64
parents 64
il 64
discussing 64
emergency 64
motorbike 64
barrel 64
houses 64
raises 64
fluffy 64
gui@@ 64
folded 64
balding 64
starting 64
lamp 64
balances 64
fix 64
nighttime 64
television 64
jewelry 64
instru@@ 64
kite 64
stairway 64
ral 64
overhead 64
plates 64
following 64
reach 64
ward 64
turned 64
gymnasium 64
rainy 64
carving 64
sides 64
tain 64
pigeons 64
lifting 64
objects 64
clad 64
surrounding 64
naked 64
speed 64
listens 64
ballet@@ 60
hrt 60
farb@@ 60
gend 60
festhält 60
drei@@ 60
schei@@ 60
büschen 60
tal@@ 60
kie 60
zöpfen 60
cker@@ 60
esel 60
eingezäunten 60
starren 60
motorroller 60
wald@@ 60
dazu 60
diskutieren 60
p-@@ 60
dum@@ 60
vorüber 60
werkstatt 60
fernglas 60
zahlreiche 60
wur@@ 60
ufer@@ 60
schieben 60
schubkarre 60
ün@@ 60
näht 60
schaufenster 60
vielleicht 60
leu@@ 60
einrad 60
schotter@@ 60
hinein 60
löffel 60
bier@@ 60
zeugen 60
grau-@@ 60
farbenes 60
teaching 60
braun-schwarzer 60
ini@@ 60
turner 60
augen@@ 60
bespritzt 60
flur 60
gele@@ 60
gleichen 60
keit 60
fisch@@ 60
afro@@ 60
lange 60
motorräder 60
spaziergang 60
gefüllt 60
kletter@@ 60
vögel 60
baumes 60
inn@@ 60
schau 60
waldweg 60
kaffee@@ 60
kapuze 60
beln 60
stücke 60
sig@@ 60
sst 60
trock@@ 60
palmen 60
ziegelmauer 60
tä@@ 60
putzen 60
stil 60
sten@@ 60
pinata 60
flan@@ 60
bietet 60
mountain@@ 60
bückt 60
black@@ 60
felsen@@ 60
zahn@@ 60
schilder 60
aufnahme 60
konstruktion 60
förmigen 60
orangefarbene 60
pira@@ 60
wendet 60
cheerleader@@ 60
iter 60
freiluft@@ 60
mittagessen 60
suchen 60
fallschirm 60
dach@@ 60
rug 60
hochzeits@@ 60
braun@@ 60
tö@@ 60
fußgängerüberweg 60
versammlung 60
pum@@ 60
tennisspielerin 60
polo@@ 60
lounge 60
weihnachts@@ 60
neu@@ 60
pft 60
überprüft 60
frisur 60
beam@@ 60
weg@@ 60
nack@@ 60
profession@@ 60
stirn 60
kleidungs@@ 60
logo 60
ruhigen 60
afroamerikaner 60
schlitt@@ 60
baseballspiel 60
dig 60
hoben 60
gewändern 60
näh@@ 60
blumenmuster 60
maulkorb 60
runter 60
nah 60
engen 60
teenageralter 60
tack@@ 60
tribüne 60
pass@@ 60
sna@@ 60
dru@@ 60
usa 60
blau@@ 60
caps 60
fs 60
ey 60
lar@@ 60
sommer@@ 60
feiert 60
hoo@@ 60
test 60
bewundert 60
ggy 60
uti@@ 60
zeichnung 60
monument 60
verkleidete 60
eishockeyspieler 60
verlässt 60
schri@@ 60
shel@@ 60
hug 60
ll 60
parasailing 60
lasso 60
6@@ 60
grand@@ 60
oranges 60
xes 60
violine 60
sprinkler 60
sprinkl@@ 60
scheinbar 60
blin@@ 60
world 60
schwarzwei@@ 60
converse 60
ties 60
vel@@ 60
point 60
biking 60
shovels 60
hits 60
security 60
-like 60
odd 60
comple@@ 60
numerous 60
flowered 60
unicycle 60
lounging 60
directions 60
amongst 60
swimmers 60
control 60
tle 60
redheaded 60
called 60
white-@@ 60
protesting 60
participate 60
pea@@ 60
branch 60
pottery 60
whi@@ 60
ving 60
raising 60
terrain 60
repair 60
zed 60
wrestle 60
shaved 60
necklace 60
teammate 60
partially 60
oc@@ 60
engaged 60
headband 60
observing 60
forward 60
smaller 60
thin 60
blow 60
ssing 60
barber 60
follows 60
newborn 60
photos 60
ssed 60
electronic 60
tch 60
cameras 60
present 60
-down 60
fireman 60
village 60
liquid 60
&apos;t 60
advertising 60
crosses 60
relax 60
wings 60
papers 60
cut@@ 60
corn 60
beneath 60
shades 60
rande 56
gleichzeitig 56
kunststoff@@ 56
spielzeug-@@ 56
ertes 56
neue 56
farbene 56
brillen 56
zubereitet 56
mitglied 56
turm 56
fahrzeuge 56
stellung 56
grimassen 56
schaufeln 56
lichem 56
pony 56
rothaariges 56
kur@@ 56
bändern 56
kindes 56
karten@@ 56
bauarbeiten 56
tief@@ 56
glatzköpfiger 56
brauen 56
by-@@ 56
dekorati@@ 56
laden@@ 56
jubelt 56
sche@@ 56
sbe@@ 56
spritzen 56
karussell 56
stei@@ 56
bett@@ 56
gras@@ 56
afroamerikanische 56
sessel 56
mischen 56
ton 56
trommeln 56
wärts 56
bücher@@ 56
khakifarbenen 56
ney 56
ofen 56
busses 56
essens@@ 56
netze 56
nächsten 56
achterbahn 56
unterschied@@ 56
ue 56
entlanggeht 56
webt 56
rosafarbene 56
indischer 56
ländlichen 56
hafen@@ 56
tüte 56
softball@@ 56
marine@@ 56
filmt 56
vorbeigeht 56
sprüht 56
drinnen 56
lockigen 56
gemüse@@ 56
karton 56
schaukeln 56
spre@@ 56
sit@@ 56
schmutz 56
seh@@ 56
silber@@ 56
taucher 56
schreiben 56
bus@@ 56
schirme 56
beanie 56
street@@ 56
stol@@ 56
leinwand 56
gürtel 56
tür@@ 56
schulkinder 56
fahrrads 56
hil@@ 56
intervie@@ 56
demonstration 56
sat@@ 56
collie 56
beginnt 56
stirnband 56
rosafarbener 56
entertain@@ 56
glei@@ 56
klatscht 56
gestreiftes 56
stehender 56
folgen 56
ite@@ 56
passenden 56
teten 56
america 56
tüten 56
tätowi@@ 56
en-@@ 56
gy@@ 56
khakis 56
bibliothek 56
neugeborenes 56
grund@@ 56
geschen@@ 56
treiben 56
tun@@ 56
hier 56
tarn@@ 56
hotdog 56
etten 56
einsamer 56
tete 56
landet 56
twir@@ 56
fahrzeugs 56
tauben 56
monopoly 56
uhr 56
ligen 56
blau-gelben 56
aqu@@ 56
lager@@ 56
teilweise 56
deckt 56
hochge@@ 56
bewegen 56
dding 56
lobby 56
kamel@@ 56
gest@@ 56
aussehenden 56
struktur 56
kleider 56
stürzt 56
rist@@ 56
produkte 56
gei@@ 56
ameri@@ 56
oberfläche 56
haarigen 56
ren 56
reifenschaukel 56
zusammenge@@ 56
gebeugt 56
paddle 56
farbenfro@@ 56
vorüber@@ 56
häu@@ 56
holen 56
pferde@@ 56
8@@ 56
akustikgitarre 56
gera@@ 56
klassenraum 56
tracht 56
rettungswesten 56
modern 56
? 56
moti@@ 56
11 56
noti@@ 56
figuren 56
tal 56
target 56
gle 56
snowboardfahrer 56
flips 56
verdeckt 56
rennens 56
regi@@ 56
monitor 56
tackle 56
ora@@ 56
wrestler 56
mic 56
# 56
asiatinnen 56
listen 56
aquarium 56
gegner 56
thedra@@ 56
wild 56
multi@@ 56
nam@@ 56
love 56
dough 56
skul@@ 56
tea 56
xi@@ 56
dad 56
char@@ 56
shine 56
science 56
tomat@@ 56
own 56
east 56
rainbow 56
shakes 56
whilst 56
binoculars 56
billboard 56
steel 56
spon@@ 56
donkey 56
silly 56
skiers 56
repairs 56
job 56
cook 56
athletes 56
fake 56
push 56
shining 56
spo@@ 56
shops 56
carry 56
book@@ 56
trailer 56
weaving 56
scarves 56
oes 56
mmed 56
slee@@ 56
casual 56
share 56
tower 56
ages 56
cobblestone 56
trunk 56
eling 56
firemen 56
oms 56
wading 56
conven@@ 56
calm 56
splashes 56
interacting 56
guns 56
straight 56
tted 56
gift 56
cards 56
machines 56
upon 56
mid 56
receiving 56
most 56
peering 56
slightly 56
rows 56
crafts 56
airborne 56
pretty 56
guards 56
pillow 56
passenger 56
photographed 56
stic 56
glove 56
ily 56
yed 56
leads 56
aisle 56
camel 56
races 56
charac@@ 56
homeless 56
performers 56
admiring 56
hotdogs 52
kunstwerke 52
gelen@@ 52
chs 52
pt@@ 52
abends 52
meeres 52
schwert 52
feuerwehrleute 52
arzt 52
bedeck@@ 52
rö@@ 52
es@@ 52
promenade 52
tut 52
schne@@ 52
elefanten 52
hänge@@ 52
tten 52
musli@@ 52
strickmütze 52
kettensäge 52
stehend 52
wange 52
geschi@@ 52
mülltonne 52
lernt 52
gerä@@ 52
oran@@ 52
computerbildschirm 52
wandt 52
schutz 52
itä@@ 52
geparkten 52
pfer@@ 52
hocker 52
boss 52
motocross-@@ 52
regal 52
unterwäsche 52
bb@@ 52
leucht@@ 52
im@@ 52
spla@@ 52
schienen 52
handschuhe 52
streich@@ 52
bürger@@ 52
maler 52
ssage 52
schnur 52
reg@@ 52
asien 52
türen 52
stühle 52
marktplatz 52
fingern 52
gesichtsbemalung 52
erung 52
pfen 52
dreh@@ 52
gefüllten 52
liert 52
9 52
ohr 52
welpe 52
früchte 52
stap@@ 52
unbefestigte 52
barfüßige 52
gelt 52
cowboy@@ 52
pistole 52
kies 52
floß 52
rafting 52
inform@@ 52
spazier@@ 52
kau@@ 52
einzu@@ 52
altes 52
tur 52
zeug@@ 52
waschbecken 52
dünn@@ 52
gehender 52
10 52
schwarz@@ 52
bühnen@@ 52
diri@@ 52
alt@@ 52
mop@@ 52
zes 52
gemu@@ 52
gemacht 52
gender 52
seiten@@ 52
verheiratetes 52
fass 52
wohl 52
halstuch 52
plastiktüte 52
u-bahn-station 52
gelassen 52
lage 52
gestikuliert 52
menschen@@ 52
papiere 52
langhaarige 52
markt@@ 52
ständer 52
us@@ 52
mini@@ 52
kasten 52
leckt 52
locken 52
bereit@@ 52
vorbereitet 52
fallschirm@@ 52
gebaut 52
schuss 52
nie@@ 52
hüpfen 52
inspi@@ 52
last@@ 52
laufbahn 52
spei@@ 52
tha@@ 52
ozean 52
rauch 52
hindurch 52
bündel 52
ou@@ 52
buffet 52
wind 52
ktem 52
verti@@ 52
tie@@ 52
hart 52
man-@@ 52
company 52
patro@@ 52
schlu@@ 52
frü@@ 52
flu@@ 52
meeres@@ 52
bilden 52
ansicht 52
boote 52
streicht 52
enten 52
doll 52
cool@@ 52
kitt@@ 52
tter 52
tänzerin 52
film@@ 52
bell@@ 52
retrie@@ 52
aufmerksam 52
samen 52
screaming 52
lebensmittelgeschäft 52
sowie 52
gewickelt 52
entre@@ 52
schä@@ 52
säulen 52
pult 52
lips 52
bandana 52
kna@@ 52
cup@@ 52
fänger 52
profi@@ 52
button@@ 52
lon@@ 52
pflanze 52
pink@@ 52
bela@@ 52
wü@@ 52
bull@@ 52
viertel 52
bricht 52
luft@@ 52
vil@@ 52
läuferin 52
elmo 52
manche 52
ruhen 52
pflasterstraße 52
auditorium 52
tat@@ 52
ai@@ 52
olympischen 52
sno@@ 52
stimm@@ 52
off-@@ 52
modell@@ 52
sung 52
surfen 52
attra@@ 52
teen 52
basketballspiel 52
soda 52
diver 52
ic@@ 52
fetti 52
still 52
kayaks 52
mul@@ 52
ol 52
exam@@ 52
chan@@ 52
tv 52
venue 52
pop@@ 52
wra@@ 52
inlineskates 52
leotard 52
co 52
observes 52
spotted 52
studying 52
some@@ 52
tropical 52
four@@ 52
paddles 52
tending 52
dusk 52
knit 52
chainsaw 52
check 52
customer 52
messy 52
carts 52
wheelbarrow 52
nature 52
tail 52
landing 52
spoon 52
waterway 52
ther 52
ones 52
cle@@ 52
tires 52
order 52
oven 52
burgundy 52
coaster 52
examines 52
craw@@ 52
debris 52
farmer 52
eggs 52
sks 52
praying 52
stance 52
ents 52
ines 52
attention 52
autumn 52
drill 52
flute 52
if 52
stomach 52
filling 52
places 52
bystanders 52
consisting 52
cups 52
checks 52
entering 52
groceries 52
greyhound 52
lifted 52
telephone 52
barrier 52
waterfront 52
official 52
comes 52
ceremony 52
meeting 52
similar 52
dimly 52
cheer 52
bleachers 52
enter@@ 52
overweight 52
sailing 52
keys 52
browsing 52
headed 52
sneakers 52
lead 52
gestures 52
ansieht 48
sam 48
schwebt 48
klar@@ 48
noten@@ 48
stin 48
mcdonald 48
won@@ 48
sandigen 48
dor@@ 48
treppenstufen 48
männliches 48
hnen 48
bam@@ 48
schale 48
schlafen@@ 48
restaurant@@ 48
stahl@@ 48
taucher@@ 48
län@@ 48
kreuz 48
warn@@ 48
feder@@ 48
lila@@ 48
hinderni@@ 48
tour 48
lk@@ 48
jackett 48
uren 48
benen 48
schmi@@ 48
stroh@@ 48
komp@@ 48
mmen 48
weihna@@ 48
zel@@ 48
zeuge 48
c-@@ 48
badeanzügen 48
öl@@ 48
zeug 48
zurück@@ 48
herumstehen 48
terrier 48
kti@@ 48
pfe 48
stän@@ 48
rot-weiß-@@ 48
aussehen 48
schnitt 48
wassers 48
hemd@@ 48
anhänger 48
ausgestellt 48
aufgestellt 48
schneeanzug 48
person@@ 48
wake@@ 48
boarding 48
gesp@@ 48
gericht 48
hunder@@ 48
selbst 48
gehör@@ 48
sla@@ 48
baren 48
kümmert 48
nebel 48
sprungbrett 48
videospiel 48
grö@@ 48
ord@@ 48
gäste 48
tiert 48
rennfahrer 48
range 48
golfball 48
rosa-@@ 48
mischt 48
schlag@@ 48
knall@@ 48
breakdance 48
vergnügungspark 48
geschla@@ 48
barfüßi@@ 48
arch 48
mä@@ 48
spit@@ 48
schlaf@@ 48
wegs 48
fischer@@ 48
keln 48
rutschen 48
computern 48
zement 48
motorrad@@ 48
bit 48
radio 48
geöffneten 48
schafe 48
design 48
gipfel 48
weit@@ 48
appar@@ 48
artigen 48
halt 48
olo@@ 48
sü@@ 48
saiten@@ 48
einfahrt 48
schwimmweste 48
schüsseln 48
türki@@ 48
boarder 48
herbst@@ 48
tarnkleidung 48
pfo@@ 48
ley 48
schü@@ 48
gemein@@ 48
gle@@ 48
stie@@ 48
braun-weiße 48
neh@@ 48
glänzenden 48
reihen 48
tablett 48
gegenständen 48
train@@ 48
dudelsack 48
cola 48
kasse 48
erter 48
schlei@@ 48
vorstellung 48
bewegungen 48
-schild 48
schnüffelt 48
betonwand 48
dü@@ 48
hn 48
arbeitern 48
chinesi@@ 48
traditionellen 48
blockt 48
tü@@ 48
st. 48
weil 48
präsentation 48
passt 48
hen@@ 48
professor 48
interess@@ 48
badezimmer 48
gerin 48
verschneite 48
deren 48
tätowierungen 48
pudel 48
steu@@ 48
spielerisch 48
mmt 48
auslage 48
maschendrahtzaun 48
gal@@ 48
fru@@ 48
schnitzt 48
fair@@ 48
gende 48
prüft 48
klaren 48
ach 48
ong 48
blocken 48
wir 48
tische 48
tätowierung 48
statt@@ 48
schat@@ 48
gestreifter 48
leitung 48
stößt 48
herz@@ 48
cken@@ 48
freundin 48
trocken@@ 48
offi@@ 48
hundes 48
chel@@ 48
trainingsanzug 48
ssel 48
trauri@@ 48
dunklem 48
mixer 48
teile 48
strauß 48
hä@@ 48
boot@@ 48
tem@@ 48
werbe@@ 48
olympi@@ 48
zügen 48
ham 48
kreide 48
heißluftballon 48
cho@@ 48
broch@@ 48
kör@@ 48
deli@@ 48
einhei@@ 48
ling@@ 48
stand@@ 48
betrie@@ 48
lie 48
mountainbiker 48
repor@@ 48
waffel 48
walmart 48
druck@@ 48
dorf 48
schleife 48
afri@@ 48
watet 48
nieder 48
turnier 48
tutu 48
mou@@ 48
amerikanischer 48
high@@ 48
satz@@ 48
sonnenschirm 48
ke-@@ 48
hula-hoop 48
hellhäutige 48
fontäne 48
down@@ 48
lers 48
brenn@@ 48
jenga 48
zombi@@ 48
mil@@ 48
obst@@ 48
modi@@ 48
rollerskates 48
ckens 48
bea@@ 48
mix@@ 48
genommen 48
gesichtern 48
tt 48
halt@@ 48
köpfe 48
popcorn 48
sele@@ 48
bikinis 48
schnell@@ 48
paare 48
ck-@@ 48
parcours 48
show@@ 48
stall 48
ag@@ 48
begleitet 48
bemalten 48
cri@@ 48
ringer 48
are@@ 48
beisammen 48
mikrof@@ 48
graph@@ 48
ta 48
bräun@@ 48
cakes 48
ox@@ 48
arcade 48
padd@@ 48
ultimate 48
scre@@ 48
designs 48
quad 48
gent@@ 48
knöpfen 48
dress@@ 48
recei@@ 48
termin@@ 48
ies 48
play@@ 48
scouts 48
cycling 48
fashioned 48
bra 48
coun@@ 48
jet 48
oranger 48
burning 48
nee@@ 48
sive 48
pat@@ 48
ow@@ 48
tackling 48
viol@@ 48
ballet 48
bamboo 48
bricks 48
pigtails 48
scooters 48
feath@@ 48
paperwork 48
iron 48
chicken 48
load 48
give 48
boulder 48
presenting 48
wires 48
comm@@ 48
rickshaw 48
thumbs 48
clapping 48
exhibit 48
teal 48
covers 48
heading 48
puppies 48
gymnastics 48
shadows 48
tired 48
cooks 48
merchandise 48
far 48
ities 48
countryside 48
blankets 48
mming 48
newly 48
seem 48
touches 48
games 48
highway 48
bite 48
dust 48
iting 48
shoppers 48
repairing 48
dering 48
placing 48
tray 48
bagpipes 48
cti@@ 48
wares 48
alleyway 48
handing 48
visiting 48
patterned 48
knife 48
spanish 48
stare 48
drive 48
serves 48
wrap 48
pillows 48
parachut@@ 48
rollerblading 48
inspects 48
stops 48
suitcase 48
long-sleeve 48
sweeps 48
newspapers 48
complete 48
tossing 48
forehead 48
visible 48
olympics 48
atta@@ 48
movie 48
lecture 48
exercise 48
ously 48
knees 48
attending 48
biting 48
tape 48
blur@@ 48
beverages 48
accompani@@ 48
applying 48
excit@@ 48
umpire 48
juice 48
been 48
shirted 48
skaters 48
snowsuit 48
viel@@ 44
gefle@@ 44
freizeit@@ 44
lieferwagen 44
chteten 44
kleinkinder 44
seltsamen 44
herren 44
ampel 44
stal@@ 44
grün@@ 44
heit 44
wohner 44
örtlichen 44
hohe 44
händchen 44
eini@@ 44
schütteln 44
gesehen 44
schar@@ 44
flauschiger 44
dunkelten 44
hamburger 44
feu@@ 44
pfanne 44
kopfschmuck 44
kal@@ 44
unterricht 44
geländewagen 44
ähnlichen 44
fußballdress 44
kollegen 44
vorführung 44
mobil@@ 44
mädchen@@ 44
jüngerer 44
skateboard-@@ 44
grills 44
gebü@@ 44
zoo 44
eben@@ 44
prin@@ 44
kran 44
sammeln 44
präsentiert 44
männlichen 44
fecht@@ 44
wä@@ 44
schild@@ 44
holzbank 44
verkaufsstand 44
leuchtenden 44
verwenden 44
misch@@ 44
ky 44
klat@@ 44
töpfer@@ 44
bekleideter 44
cel@@ 44
gesen@@ 44
miniat@@ 44
brettspiel 44
grill@@ 44
japanischen 44
rie@@ 44
nachbar@@ 44
rückwärts 44
yel@@ 44
ige 44
freude 44
bir@@ 44
jean@@ 44
recht 44
pferdeschwanz 44
tomaten 44
hot@@ 44
gurt 44
dir@@ 44
jugendlichen 44
serviert 44
bekleidete 44
kop@@ 44
puppen 44
weiter 44
langärmeligen 44
rollen 44
ethni@@ 44
uchen 44
papp@@ 44
sicherheits@@ 44
schachtel 44
fußgängern 44
unterschiedlichen 44
wasch@@ 44
skyline 44
plüsch@@ 44
bordstein 44
leben@@ 44
dit@@ 44
fischt 44
schlagmann 44
erklimmen 44
surf@@ 44
hle 44
afroamerikanischer 44
kun@@ 44
formt 44
gerichtet 44
entgegen@@ 44
mittelalter@@ 44
jeder 44
mark 44
portrait 44
blood 44
gescho@@ 44
babys 44
wette 44
toilet@@ 44
pä@@ 44
spielplatz@@ 44
verteilt 44
indem 44
hol 44
stiefel 44
orientalische 44
arme@@ 44
sprecher 44
oberen 44
entgegen 44
kenn@@ 44
gew@@ 44
wasserrutsche 44
ausdruck 44
zugs 44
sser 44
säule 44
ssel@@ 44
wakeboard 44
feuerwehrauto 44
männer@@ 44
fort 44
budd@@ 44
iti@@ 44
hoher 44
eimern 44
füllen 44
freun@@ 44
befin@@ 44
streichen 44
ander@@ 44
blätter@@ 44
stens 44
türöffnung 44
sack@@ 44
besteht 44
drän@@ 44
ctor 44
aller 44
säugling 44
verkehrs@@ 44
reichen 44
lebensmitteln 44
straßenverkäufer 44
hafen 44
fron@@ 44
eller 44
teilnehmer 44
weihnachtsmann@@ 44
schneeh@@ 44
rodeo-@@ 44
namen 44
säge 44
früh@@ 44
steg 44
gesprungen 44
telefon@@ 44
spärlich 44
drängt 44
schlauchboot 44
reit@@ 44
stür@@ 44
segel@@ 44
lou@@ 44
tran@@ 44
kleineren 44
kostüme 44
überall 44
auge 44
obststand 44
übungen 44
gesäum@@ 44
rauch@@ 44
süßigkeiten 44
lum@@ 44
zunehmen 44
leap 44
wunderschöne 44
japan@@ 44
braunhaariger 44
frauen@@ 44
hispani@@ 44
ig 44
übung 44
zelt@@ 44
positi@@ 44
zahl 44
ertem 44
schem 44
möglicherweise 44
strecken 44
japan 44
vorderseite 44
snacks 44
kerle 44
darbietung 44
seattle 44
gepunkteten 44
stützt 44
beige@@ 44
ils 44
urein@@ 44
laborkittel 44
dritte 44
bekleidet 44
pinkfarbener 44
abgeworfen 44
schnei@@ 44
einkaufstasche 44
sparring 44
tzt 44
kol@@ 44
pon@@ 44
kühl@@ 44
swimmingpool 44
explo@@ 44
sims 44
rechte 44
skat@@ 44
erende 44
touch 44
schwester 44
schot@@ 44
jun@@ 44
workout 44
transportiert 44
bmx-fahrer 44
richtungen 44
dung 44
diti@@ 44
innenstadt 44
o-@@ 44
kittel 44
löschen 44
weihnachtsmann 44
militäri@@ 44
ticket 44
treppen@@ 44
mt 44
sil@@ 44
miami 44
stati@@ 44
hallen@@ 44
vol@@ 44
punkt 44
sl@@ 44
turnschuhen 44
eiscreme 44
ee 44
power 44
sem@@ 44
kings 44
tuni@@ 44
ponch@@ 44
ließt 44
verla@@ 44
ipod 44
ware 44
liege@@ 44
zebra@@ 44
bulldozer 44
7 44
silberfarbenen 44
mop 44
bend 44
politi@@ 44
hit@@ 44
marathon@@ 44
film 44
ols 44
diner 44
ckets 44
ddy 44
cy 44
hum@@ 44
bouquet 44
morning 44
row@@ 44
arri@@ 44
fore@@ 44
acti@@ 44
kit@@ 44
state 44
link 44
thers 44
artwork 44
patch 44
camping 44
trip 44
picks 44
lighted 44
magazines 44
assem@@ 44
constru@@ 44
elev@@ 44
hur@@ 44
cheek 44
suspenders 44
learning 44
shoreline 44
wning 44
dusty 44
weap@@ 44
traveling 44
underwear 44
placed 44
injured 44
adjusting 44
maneu@@ 44
loo@@ 44
ways 44
african-american 44
rapids 44
ponytail 44
larger 44
firefighter 44
logs 44
chatting 44
carefully 44
chess 44
eglasses 44
washer 44
kayaking 44
teens 44
tiny 44
printed 44
rollerskating 44
backdrop 44
swimsuits 44
strange 44
tricycle 44
laundromat 44
creek 44
location 44
alling 44
sunlight 44
loom 44
speak 44
record 44
department 44
mid-@@ 44
rice 44
posed 44
gathers 44
adv@@ 44
poor 44
ations 44
weather 44
floats 44
leaf 44
finished 44
drib@@ 44
parachute 44
yarn 44
motorcyclists 44
practices 44
watched 44
turquoise 44
descent 44
dives 44
opens 44
black-haired 44
sty 44
haired 44
scape 44
stle 44
planting 44
ddle 44
passersby 44
crouched 44
mug 44
asians 44
tights 44
snowshoes 44
lifts 44
unk 44
cage 44
wered 44
playfully 44
mower 44
involved 44
dot 44
roun@@ 44
rally 44
nail 44
meet 44
med 44
motorized 44
oned 44
crossed 44
couples 44
celebration 44
surgery 44
enthusia@@ 44
trolley 44
supplies 44
fashion 44
closely 44
drawn 44
focused 44
torch 44
bauwerk 40
du 40
kartons 40
picknick@@ 40
kurze 40
verkauf@@ 40
ausflug 40
loh@@ 40
öffent@@ 40
nasser 40
labra@@ 40
dor 40
wanne 40
afrikanischen 40
violett 40
strahl@@ 40
luftballon 40
schür@@ 40
erdhügel 40
kräfte 40
wet@@ 40
dut@@ 40
hren 40
klappstuhl 40
dämmerung 40
motorhaube 40
frisbee-scheibe 40
reparat@@ 40
schlendert 40
schneit 40
bö@@ 40
eisenbahn@@ 40
hochzu@@ 40
op-@@ 40
krankenhaus 40
grube 40
athle@@ 40
lings 40
schutzausrüstung 40
kom@@ 40
hills 40
arran@@ 40
stelzen 40
stolz 40
ärmello@@ 40
fasst 40
staubigen 40
erreichen 40
kampfsport@@ 40
progra@@ 40
zucker@@ 40
sper@@ 40
größeren 40
dosen 40
stelle 40
lerin 40
billard 40
bindet 40
erle@@ 40
natur@@ 40
brüne@@ 40
eil 40
unordentlichen 40
fische 40
verletz@@ 40
talent 40
menschenansammlung 40
iner 40
hawai@@ 40
i-@@ 40
burgunder@@ 40
nächt@@ 40
stur@@ 40
wolken 40
kür@@ 40
bikini-@@ 40
ausgestreckt 40
mülleimer 40
flei@@ 40
lung 40
sie@@ 40
verk@@ 40
herkunft 40
aufgeregt 40
mast 40
einfa@@ 40
lagerfeuer 40
hren@@ 40
hr 40
maul@@ 40
namens 40
namensschild 40
mark@@ 40
open-@@ 40
gradu@@ 40
saun@@ 40
entfernung 40
gehenden 40
verzierten 40
rut@@ 40
ität 40
mega@@ 40
robo@@ 40
schie@@ 40
schlü@@ 40
baseballschläger 40
clu@@ 40
nen@@ 40
aneinander 40
zeich@@ 40
schna@@ 40
lachende 40
farbiger 40
spider@@ 40
niedrigen 40
ruhigem 40
ält 40
öffentlichkeit 40
spiele 40
kurzem 40
anzeige 40
verbun@@ 40
kabine 40
fte 40
schlan@@ 40
mm 40
ktion@@ 40
intere@@ 40
gitarren 40
eingeschlafen 40
halskette 40
zylinder 40
dreirad 40
abgebildet 40
vergnügt 40
qui@@ 40
perlen 40
befesti@@ 40
regenbogen@@ 40
lächelnden 40
asphalt 40
ty@@ 40
ebenfalls 40
teppi@@ 40
trifft 40
webstuhl 40
obdachloser 40
körper@@ 40
zement@@ 40
wehren 40
kauert 40
geschnitten 40
soll 40
sko@@ 40
bevor 40
la 40
pel 40
fitness@@ 40
entu@@ 40
dlichen 40
kraft 40
stellten 40
skol@@ 40
friseur 40
orche@@ 40
fabrik 40
schwingen 40
kastanien@@ 40
angebracht 40
regnerischen 40
engel 40
kö@@ 40
the@@ 40
vortrag 40
meisten 40
ät 40
wanderweg 40
ang 40
unteren 40
start@@ 40
fächer 40
schminkt 40
au 40
wilden 40
zigar@@ 40
rollern 40
mcdonalds 40
stiften 40
in-@@ 40
braut@@ 40
beleu@@ 40
leger 40
neten 40
fremden 40
ungewöhnlichen 40
hüpf@@ 40
burg 40
gie 40
landstraße 40
kratzt 40
gegen@@ 40
angeboten 40
angemal@@ 40
pflan@@ 40
oren 40
grü@@ 40
ziegelwand 40
val 40
eten 40
prie@@ 40
gefolgt 40
chips 40
swagen 40
ien 40
hüb@@ 40
gitarristen 40
bildern 40
bergsteiger 40
zz@@ 40
axt 40
notebook 40
schneeschuhen 40
coca-@@ 40
letz@@ 40
nor@@ 40
sieg 40
potato 40
ziellinie 40
sterten 40
käfig 40
bildes 40
fertigen 40
tackelt 40
ssaal 40
lets 40
übergewichtiger 40
seni@@ 40
arabi@@ 40
krü@@ 40
musikgruppe 40
ko 40
schutzkleidung 40
erzeugnisse 40
pool@@ 40
windhund 40
ston@@ 40
llen 40
00@@ 40
konferenz 40
trans@@ 40
rettung@@ 40
those 40
sicherheit@@ 40
on-@@ 40
roo@@ 40
kari@@ 40
zauns 40
zo@@ 40
unterrichtet 40
freizeitpark 40
cyc@@ 40
identi@@ 40
amüsiert 40
geschäf@@ 40
fröhlich 40
interagi@@ 40
läufern 40
rücksitz 40
spongebo@@ 40
holzboden 40
herrn 40
put@@ 40
reini@@ 40
trink@@ 40
wäl@@ 40
ining 40
automaten 40
fliegenden 40
bestellen 40
kiosk 40
blasen@@ 40
chee@@ 40
fit@@ 40
jahr@@ 40
renaiss@@ 40
rückseite 40
sn@@ 40
fußballmannschaft 40
tation 40
grand 40
saris 40
make@@ 40
hat@@ 40
ehen 40
stump 40
ffel 40
beladen 40
mem@@ 40
brü@@ 40
partie 40
break@@ 40
tend 40
schwarzhaarige 40
bootes 40
green@@ 40
bers 40
friedens@@ 40
waren@@ 40
besitz 40
lü@@ 40
abgestellt 40
hügel@@ 40
wolke 40
schaulusti@@ 40
side@@ 40
marker 40
challen@@ 40
inline 40
ziegelsteinen 40
proje@@ 40
scar@@ 40
aufgereiht 40
ßer 40
ands 40
babies 40
s. 40
shor@@ 40
batman 40
ma 40
mate 40
tails 40
classic 40
chemi@@ 40
prote@@ 40
bor 40
halloween 40
series 40
buil@@ 40
nel 40
news 40
ya@@ 40
tug@@ 40
symbol 40
plo@@ 40
dle 40
fier 40
kne@@ 40
cast 40
digital 40
tournament 40
colum@@ 40
toddlers 40
clim@@ 40
scending 40
rooftop 40
frozen 40
march 40
spect@@ 40
foot@@ 40
tribal 40
shar@@ 40
nurses 40
zens 40
helicopter 40
handrail 40
mexican 40
thumb 40
maintenance 40
eing 40
trashcan 40
branches 40
washes 40
stilts 40
cul@@ 40
late 40
pers 40
belts 40
demonstra@@ 40
pins 40
walked 40
creating 40
quickly 40
stepping 40
chopping 40
od 40
located 40
asia 40
serve 40
racers 40
coa@@ 40
earphones 40
sprayed 40
less 40
roadside 40
furry 40
ends 40
hiding 40
condu@@ 40
brother 40
goat 40
leaf@@ 40
lens 40
pots 40
driveway 40
emer@@ 40
displays 40
pin 40
gaze 40
scaffold 40
chalkboard 40
whom 40
storm 40
involving 40
pads 40
played 40
speaker 40
brin@@ 40
cop 40
decorative 40
stroke 40
transportation 40
canvas 40
ctions 40
activity 40
contraption 40
thin@@ 40
ple 40
facility 40
upward 40
seagul@@ 40
shape 40
workshop 40
desc@@ 40
juggles 40
fur 40
peeking 40
camera@@ 40
finishing 40
headdress 40
gazes 40
casually 40
bag@@ 40
apart 40
laun@@ 40
floo@@ 40
process 40
single 40
icy 40
incline 40
gallery 40
collared 40
gray-haired 40
feat@@ 40
displaying 40
approaches 40
nur@@ 40
cute 40
lled 40
hike 40
amidst 40
ssive 40
valley 40
hear@@ 40
sideways 40
work@@ 40
cial 40
embracing 40
cheese 40
numbers 40
surfs 40
celebrate 40
shing 40
lining 40
products 40
lighting 40
done 40
second 40
wns 40
bedienen 36
system 36
treppenhaus 36
pf 36
führer 36
strands 36
schützt 36
gas@@ 36
liegende 36
eisk@@ 36
letter@@ 36
pullunder 36
glä@@ 36
hübschen 36
felsvorsprung 36
ziegel 36
rai@@ 36
fluss@@ 36
fahrenden 36
zeitschriften 36
lehr@@ 36
gleis 36
steile 36
daran 36
entfernen 36
mexikani@@ 36
stirn@@ 36
tagsüber 36
jong@@ 36
spee@@ 36
einiger 36
erhö@@ 36
meer@@ 36
ak@@ 36
vergnügen 36
zimmer@@ 36
dahinter 36
betreten 36
welcome 36
passagiere 36
platz@@ 36
flipflops 36
utsche 36
schürzen 36
einkaufen 36
straßenarbeiter 36
sauber 36
tromm@@ 36
mut@@ 36
kul@@ 36
ppi@@ 36
violet@@ 36
eilen 36
chte@@ 36
knö@@ 36
hohem 36
rikscha 36
bauernmarkt 36
voll@@ 36
gepfle@@ 36
masken 36
statu@@ 36
gitarren@@ 36
formen 36
sle@@ 36
aussehendes 36
haut 36
schwimmen@@ 36
zten 36
ausgestre@@ 36
akusti@@ 36
kleide@@ 36
nerin 36
nass 36
kontrolle 36
spie@@ 36
elektrischen 36
sz@@ 36
hohes 36
krö@@ 36
teilnehmen 36
schwarz-weißem 36
warmen 36
stromschnellen 36
attraktive 36
felsk@@ 36
kämpft 36
erleuchteten 36
lädt 36
mäht 36
späht 36
uniformierte 36
beamte 36
of@@ 36
glatze 36
spritz@@ 36
regenmantel 36
diesen 36
bzw. 36
protestiert 36
zit@@ 36
schach 36
musikinstrumente 36
festgebunden 36
gkeiten 36
schwarz-weiße 36
geburtstag@@ 36
ffe 36
spielerinnen 36
spiegel@@ 36
henden 36
losen 36
sou@@ 36
gur@@ 36
vorführt 36
lippen 36
moo@@ 36
förm@@ 36
chers 36
bedruckten 36
holzzaun 36
flussufer 36
bemal@@ 36
autobahn 36
tage 36
unglück@@ 36
schützen 36
akten@@ 36
knie 36
bruder 36
einkaufstüten 36
jeweils 36
projek@@ 36
geöffne@@ 36
dritten 36
mente 36
stativ 36
astro@@ 36
einrichtung 36
herbst 36
segelboot 36
stil@@ 36
gent 36
schlammigen 36
heller 36
alko@@ 36
nacht@@ 36
schneebedecktes 36
aussicht 36
orangefarbenes 36
w-@@ 36
wasserski 36
flusses 36
sai@@ 36
ügel 36
radfahr@@ 36
amp@@ 36
piercing 36
stäbchen 36
steintreppe 36
hinterbeinen 36
besitz@@ 36
träger 36
last 36
bask@@ 36
friseur@@ 36
wär@@ 36
bten 36
ry-@@ 36
ev@@ 36
wenn 36
spir@@ 36
rauchen 36
ausländi@@ 36
absperrung 36
wetter 36
rudern 36
füll@@ 36
vorderen 36
tiges 36
lampen 36
beleuchtet 36
gefallen 36
festi@@ 36
ationen 36
heim@@ 36
dribbelt 36
fahren@@ 36
aufgaben 36
mmer 36
wahr@@ 36
uniformierter 36
lernen 36
erhobenen 36
patienten 36
press@@ 36
geo@@ 36
geschn@@ 36
kricket 36
wil@@ 36
vorder@@ 36
-hemd 36
tätowierte 36
bast@@ 36
zeichnen 36
meter 36
fau@@ 36
mön@@ 36
angezogener 36
gepflasterte 36
mei@@ 36
alt 36
enth@@ 36
bullen@@ 36
pok@@ 36
pfahl 36
stecken 36
pee@@ 36
brunn@@ 36
probieren 36
münz@@ 36
röhre 36
extre@@ 36
greyho@@ 36
wärmen 36
schwestern 36
peace-zeichen 36
pfeil 36
laternen 36
gru@@ 36
fur@@ 36
gelangen 36
bowling@@ 36
euro@@ 36
besucht 36
fertig 36
ktion 36
mel 36
stuhl@@ 36
fenstern 36
camp@@ 36
fußgänger@@ 36
geträn@@ 36
überdachten 36
speise@@ 36
prei@@ 36
basket@@ 36
grab 36
kragen 36
völlig 36
darin 36
cola-@@ 36
getroffen 36
felsbrocken 36
gestellt 36
kunst 36
flügel 36
ähnlich 36
bewaldeten 36
dal@@ 36
tun 36
vö@@ 36
überprüfen 36
geöffnet 36
ppel@@ 36
straßenseite 36
mach@@ 36
ope 36
nation@@ 36
weiteren 36
apfel 36
offen@@ 36
grasbewachsen@@ 36
erie 36
langärm@@ 36
mmen@@ 36
passiert 36
fernseher 36
gelegenen 36
spat@@ 36
ausgezogen 36
gepäck@@ 36
golden@@ 36
schafts@@ 36
karohemd 36
aters 36
meere@@ 36
spaziert 36
ites 36
say 36
teilt 36
binden 36
elementary 36
fassade 36
boden@@ 36
sicherheitsweste 36
essensstand 36
familien@@ 36
gruppen@@ 36
betrachter 36
rasenmäher 36
lten 36
flugzeugs 36
geschnittenen 36
umringt 36
seichten 36
gehol@@ 36
wasserfläche 36
baseball-@@ 36
hab@@ 36
lokal 36
hübsche 36
möbel@@ 36
trau@@ 36
skateboar@@ 36
ballon@@ 36
heruntergekommenen 36
würde 36
tol@@ 36
außenbereich 36
eink@@ 36
schneebedeckte 36
parallel 36
öffnen 36
strei@@ 36
bohrmaschine 36
schachteln 36
etwa 36
irokesenschnitt 36
kauf@@ 36
zei@@ 36
heraus@@ 36
backflip 36
live@@ 36
platten 36
inner@@ 36
saxofon 36
ales 36
chinesische 36
feier@@ 36
geschwindigkeit 36
zauber@@ 36
ssions 36
cockpit 36
kartoff@@ 36
chirur@@ 36
dritter 36
mas 36
nes 36
us-@@ 36
rett@@ 36
straßenmusiker 36
win 36
denk@@ 36
gegnerische 36
pub 36
perücke 36
las 36
barren 36
tren@@ 36
gesetz@@ 36
kimonos 36
tanzfläche 36
reklametafel 36
kapuzenpullover 36
san 36
formeller 36
befahrenen 36
kund@@ 36
dunk 36
osten 36
university 36
egg 36
ki 36
gitar@@ 36
begeisterung 36
bmx-@@ 36
lagen 36
half@@ 36
hm@@ 36
diert 36
gespannt 36
kulisse 36
snowboards 36
life@@ 36
kneipe 36
pferder@@ 36
fischernetz 36
ility 36
asiat 36
rasenfläche 36
moder@@ 36
jogger 36
inning 36
spielers 36
busine@@ 36
radrennfahrer 36
jung@@ 36
nat@@ 36
styli@@ 36
hop@@ 36
chil@@ 36
re 36
anhaben 36
bikin@@ 36
ärz@@ 36
orientalisch 36
ese 36
chie@@ 36
ckel@@ 36
dessert 36
deli 36
spot 36
stant 36
temp@@ 36
flannel 36
girl@@ 36
emp@@ 36
cigar 36
ual 36
cover@@ 36
acce@@ 36
graffiti@@ 36
dex 36
who@@ 36
foods 36
oring 36
pad 36
dunking 36
free@@ 36
casino 36
pow@@ 36
road@@ 36
gazing 36
shiel@@ 36
almost 36
thing 36
river@@ 36
dive 36
bends 36
hea@@ 36
stoop 36
barbe@@ 36
wheeler 36
types 36
strolls 36
decorations 36
jogs 36
pale 36
operates 36
employees 36
aprons 36
service 36
highchair 36
camp 36
adjusts 36
booths 36
farmers 36
section 36
reflection 36
task 36
foliage 36
bicycling 36
pathway 36
gardening 36
tends 36
painter 36
horizon 36
clouds 36
sniffing 36
joy 36
tiled 36
pet 36
breakdancing 36
attractive 36
swor@@ 36
capped 36
upset 36
raincoat 36
french 36
brass 36
strapped 36
league 36
tags 36
grabbing 36
suit@@ 36
containing 36
handle 36
cab 36
cellphones 36
rav@@ 36
concentra@@ 36
sorting 36
sure 36
draw 36
ture 36
bouncing 36
brushes 36
pumpkin 36
tripod 36
shiny 36
wait@@ 36
toi@@ 36
scenic 36
pencil 36
shoo@@ 36
chocolate 36
color@@ 36
checkers 36
fishes 36
featuring 36
sawing 36
bush@@ 36
even 36
odles 36
handed 36
hind 36
butterfly 36
opy 36
gesturing 36
really 36
beret 36
crowds 36
treat 36
dragging 36
dumpster 36
illumin@@ 36
interesting 36
motion 36
built 36
peer 36
crates 36
chewing 36
discu@@ 36
blue-@@ 36
photograph@@ 36
soap 36
than 36
displayed 36
atm 36
cann@@ 36
sledding 36
chopsticks 36
monkey 36
cer@@ 36
relea@@ 36
menu 36
appro@@ 36
jumped 36
images 36
exerci@@ 36
short-haired 36
scent 36
sad 36
gged 36
writes 36
known 36
curly-haired 36
circular 36
cloud 36
remo@@ 36
pattern 36
two-@@ 36
ducks 36
muzzle 36
afternoon 36
grabs 36
bath@@ 36
expl@@ 36
tight 36
belongings 36
hudd@@ 36
trench 36
stacked 36
able 36
wr@@ 36
ep@@ 36
kly 36
cleaner 36
tips 36
ering 36
muzzled 36
well-@@ 36
olympic 36
begins 36
protesters 36
unique 36
heavily 36
jumper 36
wig 36
score 36
riot 36
sking 36
rifle 36
recording 36
bathtub 36
cover 36
canadian 36
decora@@ 36
obser@@ 36
foc@@ 36
kaput@@ 32
erhält 32
wippe 32
straßenszene 32
gläser 32
ckchen 32
wildnis 32
gefroren@@ 32
elektro@@ 32
fußgängerübergang 32
wachmann 32
tele@@ 32
kommuni@@ 32
walk@@ 32
rührt 32
gefär@@ 32
gieren 32
schutzwe@@ 32
dä@@ 32
hubschrauber 32
zeh@@ 32
eisen@@ 32
verschieden 32
wegen 32
hock@@ 32
ausgebreite@@ 32
aufzug 32
altmodi@@ 32
wartungs@@ 32
schwenken 32
ier@@ 32
ozeans 32
werkzeugen 32
ilt 32
huhn 32
geschrie@@ 32
schlendern 32
eine@@ 32
schlucht 32
bürste 32
schwere 32
pinsel 32
sommertag 32
hosenträgern 32
dinosauri@@ 32
brot@@ 32
fts 32
umgebenen 32
stellte 32
kapuzen@@ 32
bürstet 32
karat@@ 32
sandburg 32
mal 32
seifenblase 32
zuhört 32
mari@@ 32
wän@@ 32
stag 32
hochstuhl 32
gürteln 32
blöcken 32
finden 32
bauarbeiter@@ 32
rothaariger 32
ffer@@ 32
lippen@@ 32
saugt 32
eln@@ 32
spring@@ 32
aufblasbare 32
jahrmarkt@@ 32
hängematte 32
spiegelbild 32
baseballfeld 32
indian@@ 32
stütz@@ 32
unge@@ 32
anweisungen 32
reifen@@ 32
unterhemd 32
vollstän@@ 32
esstisch 32
dicken 32
wasserski@@ 32
bagger 32
fahrradhelm 32
imbiss@@ 32
fasz@@ 32
spielzeugauto 32
bockenden 32
stamm@@ 32
fertig@@ 32
gefahren 32
horizont 32
heraushängender 32
ing-@@ 32
weise 32
amerikanisches 32
fußboden 32
leuchten@@ 32
prü@@ 32
teddy@@ 32
fels 32
schritt 32
natur 32
hydranten 32
hinder@@ 32
text 32
camping@@ 32
verschränkten 32
gitter 32
trockenen 32
schals 32
gebir@@ 32
kinds 32
wol@@ 32
säcken 32
angezogene 32
scheln 32
kreuzten 32
eier 32
zielt 32
ett@@ 32
angels 32
blaskapelle 32
passen@@ 32
demonstranten 32
dunkelheit 32
legerer 32
ansehen 32
beachvolleyball 32
kitchena@@ 32
silberne 32
gan 32
bestehend 32
kommen@@ 32
kontrol@@ 32
jogging@@ 32
servieren 32
handwerker 32
gegenüber@@ 32
tischer 32
metallstange 32
ereignis 32
denkt 32
nungen 32
straßenfest 32
versuch 32
ff 32
küsten@@ 32
hochha@@ 32
zäun@@ 32
handys 32
putzer 32
och@@ 32
dreirä@@ 32
soft@@ 32
bul@@ 32
pedal 32
sägt 32
schöner 32
geflochten@@ 32
ammer 32
zuhause 32
zie@@ 32
football-spiel 32
enga@@ 32
eig@@ 32
key@@ 32
ierten 32
hüfte 32
jack 32
college-@@ 32
staub 32
kürbis 32
einkäufer 32
blasinstru@@ 32
gän@@ 32
kahl@@ 32
staun@@ 32
berry 32
washington 32
basketballfeld 32
zelten 32
ridor 32
mitspieler 32
schieß@@ 32
arrangement 32
kerze 32
stumpf 32
lecker@@ 32
breiten 32
hockeyspiel 32
ieren 32
fernsehen 32
sonnenlicht 32
blau-grünen 32
militäruni@@ 32
säcke 32
hause 32
leb@@ 32
lun@@ 32
linke 32
dekoriert 32
altmodischen 32
kampfspor@@ 32
fliege 32
absol@@ 32
aktiv@@ 32
wahrscheinlich 32
dieselbe 32
schutt 32
mick@@ 32
irgendeinem 32
nun 32
teenagern 32
skate@@ 32
blö@@ 32
prun@@ 32
rockband 32
spru@@ 32
bän@@ 32
gemü@@ 32
utensi@@ 32
vorsichtig 32
ffe@@ 32
sporthalle 32
geschoben 32
anten 32
heiß@@ 32
flug 32
springer 32
elektronischen 32
geräte 32
papa 32
polohemd 32
touristen@@ 32
lands 32
schnit@@ 32
betonmauer 32
holzbrett 32
gesellschaft 32
chten@@ 32
wettei@@ 32
geld@@ 32
taube 32
aufgereg@@ 32
tage@@ 32
typi@@ 32
porträt 32
bodysuit 32
selbst@@ 32
sweatshirts 32
schnappt 32
gewinnen 32
buchstaben 32
träger@@ 32
gestreifte 32
frem@@ 32
zerinnen 32
rodeo@@ 32
betet 32
sfarbenen 32
mige 32
ßer@@ 32
harmonika 32
schaf 32
präch@@ 32
pfi@@ 32
medizini@@ 32
lieren 32
lusti@@ 32
gehstock 32
getreide 32
kr@@ 32
eingewickelt 32
brautjung@@ 32
saxoph@@ 32
information 32
masten 32
gne 32
gebauten 32
stür 32
hinauf@@ 32
wache 32
ziegelgebäude 32
sseln 32
meißelt 32
hero 32
lippe 32
lama 32
gangs 32
oldti@@ 32
gold-@@ 32
wach@@ 32
stämmen 32
ladung 32
brennende 32
tennisplatz 32
tenni@@ 32
zeremonie 32
eli@@ 32
züge 32
gelb-schwarzen 32
kopfbedeckungen 32
muskulöser 32
disk@@ 32
schwarm 32
rot-schwarzen 32
dul@@ 32
strümpfen 32
angehalten 32
stern@@ 32
main 32
schrau@@ 32
zieh@@ 32
telefonieren 32
schran@@ 32
gespielt 32
inder 32
theater@@ 32
holzkonstruktion 32
dekor@@ 32
bunge@@ 32
zhut 32
kragen@@ 32
klammert 32
oklaho@@ 32
ma-@@ 32
headset 32
glichen 32
tank@@ 32
nackte 32
bert 32
gießen 32
denkmal 32
beißen 32
wasserbecken 32
pp 32
stadtpark 32
fit 32
gert 32
fahrzeugen 32
faulenzen 32
wischen 32
ruder 32
verschwo@@ 32
ath@@ 32
spra@@ 32
beteil@@ 32
sky@@ 32
stum@@ 32
kamm 32
windhunde 32
nummern 32
telefonzelle 32
cheerlea@@ 32
ziegelbau 32
sine 32
base@@ 32
probiert 32
protest@@ 32
außer@@ 32
graues 32
buck@@ 32
indien 32
kämpfer 32
school-@@ 32
industri@@ 32
pizzeria 32
frischem 32
elektri@@ 32
gymnastik@@ 32
kajakfahrer 32
wassersprenger 32
vögeln 32
ss-@@ 32
bush 32
afrikaner 32
hellhäuti@@ 32
sicherheitswesten 32
saft 32
island 32
comi@@ 32
pain 32
verw@@ 32
kegeln 32
chin@@ 32
onne 32
eu@@ 32
zündet 32
konzer@@ 32
steinbank 32
eho@@ 32
elnden 32
werfer@@ 32
holi@@ 32
b-@@ 32
matra@@ 32
trocknet 32
kampfsportler 32
wollmütze 32
aten 32
schreib@@ 32
stabhoch@@ 32
skatet 32
rugbyspieler 32
body@@ 32
forscher 32
plasti@@ 32
objekti@@ 32
wash 32
puzzle 32
schloss 32
gleichgewicht 32
verwirr@@ 32
sari 32
anzahl 32
boar@@ 32
zahnbürste 32
strumpfhose 32
feuerstelle 32
rostigen 32
bongo 32
orientalischer 32
akrobati@@ 32
religiö@@ 32
krä@@ 32
dramati@@ 32
20@@ 32
gebäude@@ 32
fon@@ 32
sombrer@@ 32
weiterer 32
yama@@ 32
waschmaschine 32
canyon 32
minivan 32
footballspiel 32
ballerin@@ 32
striert 32
husky 32
ore@@ 32
cktem 32
eishockey@@ 32
kompletter 32
schmalen 32
taxis 32
obama 32
begeistert 32
haltend 32
rest@@ 32
kajaks 32
zielen 32
eishockey 32
itali@@ 32
sandwi@@ 32
ladefläche 32
geschmückt 32
protesti@@ 32
karierter 32
marki@@ 32
benden 32
slam 32
nahen 32
geldautomaten 32
gehüllt 32
kanerin 32
spielsachen 32
ha 32
indiani@@ 32
grünfläche 32
streifen@@ 32
ants 32
stor@@ 32
darüber 32
möchte 32
hellgrünen 32
gress 32
volleyballspieler 32
bands 32
backsteinmauer 32
navi@@ 32
rugs 32
kaner 32
ruhig 32
cowgirl 32
schmin@@ 32
bord 32
ant@@ 32
baseman 32
lly@@ 32
vege@@ 32
gin@@ 32
champa@@ 32
europa 32
boston 32
ske@@ 32
patrio@@ 32
spitzen 32
kanadi@@ 32
fish@@ 32
verse 32
kopfstein@@ 32
suv 32
fotogra@@ 32
boogie 32
erklimmt 32
rollerskat@@ 32
fackel 32
starbucks 32
soeben 32
smartphone 32
facial 32
marathonläufer 32
lion 32
wheel@@ 32
sail 32
mitt@@ 32
cen@@ 32
broad 32
ugh 32
va 32
geish@@ 32
stock@@ 32
circus 32
rosaroten 32
fedora 32
ped@@ 32
keeper 32
rollers 32
mani@@ 32
monk 32
return 32
eds 32
badminton 32
pop 32
earth 32
mag@@ 32
na 32
cari@@ 32
chin 32
kee@@ 32
uble 32
british 32
refle@@ 32
cons@@ 32
clar@@ 32
packing 32
barefooted 32
-colored 32
much 32
too 32
forested 32
communi@@ 32
fat 32
scrubs 32
napping 32
darkened 32
bled 32
usly 32
teammates 32
knee-@@ 32
somewhere 32
strolling 32
cries 32
surgical 32
spins 32
dinosau@@ 32
plain 32
had 32
sear@@ 32
skills 32
redhead 32
transit 32
amount 32
vending 32
labeled 32
cluttered 32
elabo@@ 32
rate 32
hammock 32
shaggy 32
masks 32
shelf 32
conne@@ 32
splashed 32
waiter 32
staff 32
stuff 32
rub@@ 32
stuck 32
edly 32
companion 32
stretches 32
hawaiian 32
hydrant 32
campfire 32
draped 32
shadow 32
midst 32
synchronized 32
skinny 32
squeezing 32
lem@@ 32
cases 32
cherry 32
ppy 32
envi@@ 32
underground 32
unhappy 32
protect 32
medium 32
downhill 32
stry 32
variety 32
projector 32
punch 32
purses 32
package 32
mix 32
sailboat 32
accident 32
artists 32
signing 32
lay@@ 32
candle 32
travel 32
table@@ 32
flower@@ 32
stream@@ 32
shing@@ 32
wheeled 32
directing 32
ately 32
lively 32
sk 32
zzy 32
grasp@@ 32
fountains 32
bear@@ 32
pocket 32
denti@@ 32
buried 32
waist 32
adverti@@ 32
because 32
banners 32
cheerleading 32
congreg@@ 32
citi@@ 32
canoes 32
eled 32
gown 32
imp@@ 32
musta@@ 32
cigar@@ 32
bundle 32
harve@@ 32
stringed 32
mess 32
iling 32
ly-@@ 32
judges 32
foam 32
easel 32
beads 32
peers 32
filming 32
harmonica 32
crayons 32
tery 32
skies 32
unusual 32
warehouse 32
tching 32
photographers 32
lanterns 32
lic 32
daytime 32
tying 32
barre@@ 32
bridesmaids 32
laboratory 32
angle 32
tum@@ 32
completed 32
sprays 32
industrial 32
european 32
ir 32
camels 32
homemade 32
vintage 32
when 32
pours 32
conductor 32
muscular 32
ured 32
shout@@ 32
looked 32
tackled 32
hardwood 32
establishment 32
abandoned 32
columns 32
trains 32
tuxe@@ 32
gesture 32
product 32
kisses 32
india 32
hammering 32
commercial 32
kaya@@ 32
dly 32
speeding 32
notes 32
employee 32
deer 32
bedroom 32
figures 32
tug-of-war 32
spotlight 32
every@@ 32
fting 32
acrobatic 32
deci@@ 32
nails 32
toothbrush 32
draws 32
crow@@ 32
packed 32
tic 32
religious 32
bartender 32
crashing 32
create 32
waterskiing 32
lor 32
destination 32
doesn 32
fields 32
followed 32
deser@@ 32
loaded 32
murky 32
victory 32
pay 32
navigates 32
carrier 32
canal 32
human 32
europe 32
streut 28
mehrfarbigen 28
packen 28
neuen 28
propan@@ 28
schwebebalken 28
supermarkt 28
sicher@@ 28
storte 28
wachsen@@ 28
stammeskleidung 28
pullovern 28
tropischen 28
badeho@@ 28
sandhügel 28
speer 28
seifen@@ 28
volkswagen 28
mascara 28
parks 28
warnweste 28
untergrund 28
kunft 28
uns 28
videokamera 28
bord@@ 28
fack@@ 28
befahren@@ 28
farbi@@ 28
stehendes 28
wart 28
kunde 28
umten 28
sem 28
ehnt 28
vogelperspektive 28
statur 28
schülerin 28
lier@@ 28
schlafend 28
glatz@@ 28
rosa@@ 28
ian 28
ham@@ 28
schnür@@ 28
trottet 28
schr@@ 28
geburtsta@@ 28
schenkt 28
12 28
gela@@ 28
unt 28
kellner 28
türkisen 28
militärangehöri@@ 28
beguta@@ 28
maskottchen 28
egt 28
rolle 28
musikinstrument 28
drü@@ 28
sausa@@ 28
sfeld 28
krabbelt 28
tisches 28
kümmern 28
tän@@ 28
schaum@@ 28
nassem 28
ladens 28
skleid 28
schwertern 28
steaks 28
migen 28
tinten@@ 28
schnau@@ 28
rohre 28
lach@@ 28
krankenhaus@@ 28
schützern 28
absperr@@ 28
ligh@@ 28
räumen 28
wandmaler@@ 28
wasserstraße 28
drah@@ 28
versteckt 28
fft 28
schwieri@@ 28
zutaten 28
weiblichen 28
nah@@ 28
nin@@ 28
gehöri@@ 28
städ@@ 28
ruck@@ 28
ziege 28
trak@@ 28
grei@@ 28
vro@@ 28
bauern@@ 28
jo 28
flü@@ 28
verdi@@ 28
zubereiten 28
zigen 28
mehr 28
schweiß@@ 28
schlafendes 28
zun@@ 28
kostümierte 28
rich@@ 28
sturm 28
uch 28
zuhör@@ 28
zentrum 28
plüschtier 28
ringkampf 28
schon@@ 28
riesi@@ 28
riesen@@ 28
händ@@ 28
gä@@ 28
willi@@ 28
zuschauer@@ 28
schokoladen@@ 28
regnet 28
sortiert 28
konferen@@ 28
schönes 28
weder 28
laut@@ 28
lack@@ 28
jün@@ 28
regelt 28
stunde 28
langes 28
geschäft@@ 28
tankstelle 28
hallo@@ 28
ween-@@ 28
rasier@@ 28
technik 28
kaukasi@@ 28
nnen 28
schun@@ 28
veter@@ 28
linge 28
solo 28
kte 28
volleyballspiel 28
die@@ 28
gte 28
wassermelonen 28
süßig@@ 28
kleid@@ 28
ros@@ 28
voran 28
hou@@ 28
profi-@@ 28
schließ@@ 28
blä@@ 28
lab@@ 28
nn@@ 28
modernen 28
skel@@ 28
staubsauger 28
übers@@ 28
metri@@ 28
seit@@ 28
palme 28
pelz@@ 28
klappstühlen 28
satt@@ 28
letscher 28
nägel 28
mess@@ 28
staffelei 28
des@@ 28
winterjacke 28
begin@@ 28
parken 28
gelän@@ 28
mo 28
scho@@ 28
tellern 28
herunterge@@ 28
mini-@@ 28
stürzten 28
produkt 28
olli@@ 28
sar@@ 28
personen@@ 28
nackter 28
ga 28
aufnah@@ 28
ordnung 28
onspieler 28
punk@@ 28
mitgliedern 28
plakat@@ 28
wüsten@@ 28
zeitungen 28
pfeife 28
schlittschuhen 28
shalle 28
violetter 28
wäh@@ 28
inen 28
schließen 28
laufband 28
pal@@ 28
uro 28
pfadfinder 28
leopar@@ 28
wäsche@@ 28
rag 28
motiv 28
schil@@ 28
passagieren 28
produkten 28
leitet 28
mmel 28
ruderboot 28
kunstgalerie 28
mannequin 28
fernseh@@ 28
wohnung 28
rot-weißes 28
stamm 28
sky-@@ 28
waff@@ 28
ade 28
vogel@@ 28
quadra@@ 28
nä@@ 28
leichtath@@ 28
laterne 28
reo@@ 28
rosen 28
sprit@@ 28
mikrosk@@ 28
nachmittag 28
ckelt 28
äng@@ 28
soon@@ 28
snap 28
sooners 28
cy@@ 28
aufmerk@@ 28
alls 28
faulen@@ 28
lichtern 28
schlamm@@ 28
ausgeb@@ 28
raz@@ 28
strom 28
vorbeil@@ 28
reflektierenden 28
putz@@ 28
nis 28
segelt 28
pyjam@@ 28
itten 28
pink-@@ 28
stem 28
rollerbla@@ 28
te-@@ 28
piercings 28
seligkeiten 28
notiz@@ 28
kran@@ 28
seichtem 28
flauschi@@ 28
sonn@@ 28
modell 28
geschlo@@ 28
amm@@ 28
geschir@@ 28
steuert 28
red-@@ 28
volle 28
ot 28
bew@@ 28
nachricht 28
schleift 28
umzäunten 28
tippt 28
pfeln 28
seltsam@@ 28
muss 28
om@@ 28
ise 28
klein 28
asp@@ 28
musikinstrumenten 28
legos 28
schär@@ 28
waffeln 28
iz@@ 28
ppen@@ 28
lebensmittelmarkt 28
spen@@ 28
cou@@ 28
gewe@@ 28
ring@@ 28
wieder 28
supp@@ 28
schülern 28
stapelt 28
scher@@ 28
weiß-schwarzer 28
past@@ 28
säubert 28
motocrossfahrer 28
randstein 28
smit@@ 28
wanderung 28
pyrami@@ 28
straßenrennen 28
pfadfin@@ 28
kehren 28
volunte@@ 28
rug@@ 28
power@@ 28
teria 28
wählt 28
möwen 28
sh-@@ 28
schanze 28
skater@@ 28
kolle@@ 28
müllcontainer 28
rugby@@ 28
nagel@@ 28
xylophon 28
lli@@ 28
stofftier 28
twister 28
tänzern 28
ukulele 28
pati@@ 28
fter 28
lich@@ 28
rodeoreiter 28
lilafarbener 28
nadel@@ 28
zigarre 28
splatz 28
wärtssal@@ 28
bati@@ 28
tauziehen 28
wintertag 28
boo@@ 28
gleich@@ 28
stücken 28
ly@@ 28
radfahren 28
model@@ 28
outfielder 28
ysi@@ 28
digit@@ 28
inlin@@ 28
mensch@@ 28
stadtszene 28
trüben 28
odle 28
pro 28
ph 28
spinn@@ 28
unbekann@@ 28
khakifarbener 28
superman 28
startlinie 28
skateboarders 28
traditionelle 28
tail@@ 28
lim@@ 28
spielenden 28
shake 28
cess 28
mediz@@ 28
ort@@ 28
ap@@ 28
einkaufsta@@ 28
tambour@@ 28
maj@@ 28
objekte 28
ärm@@ 28
pturen 28
senior 28
ub@@ 28
swan 28
ena@@ 28
tam@@ 28
ssene 28
kite@@ 28
shoe@@ 28
zurecht 28
u-bahnstation 28
rush 28
ach@@ 28
stro 28
eleph@@ 28
unicef 28
sleep 28
thor@@ 28
podest 28
punk 28
uth 28
paci@@ 28
manövri@@ 28
stars 28
mannschaft@@ 28
inline@@ 28
ards 28
zweite 28
verteidiger 28
experi@@ 28
inspe@@ 28
stunts 28
sca@@ 28
tro 28
slacks 28
usband 28
though 28
supermarket 28
lling 28
meadow 28
ths 28
railings 28
tree-@@ 28
tubes 28
rustic 28
starring 28
woodland 28
orned 28
workman 28
trophy 28
nude 28
mouths 28
written 28
clut@@ 28
may 28
lush 28
stores 28
puppet 28
visor 28
tton 28
mitt 28
marble 28
shift 28
irs 28
trotting 28
thick 28
waterski@@ 28
mascot 28
parent 28
patrons 28
vering 28
prints 28
resort 28
mowing 28
legged 28
videota@@ 28
exhi@@ 28
policemen 28
purchase 28
tracksuit 28
ronment 28
mountainous 28
pointed 28
level 28
laid 28
separate 28
measuring 28
pans 28
sparkl@@ 28
sy 28
support 28
raining 28
cycles 28
vacuum 28
stripe 28
picket 28
wea@@ 28
pirate 28
sements 28
were 28
shawl 28
watermelons 28
presents 28
shower 28
sociali@@ 28
snor@@ 28
punching 28
peaks 28
social 28
weigh@@ 28
maybe 28
turkey 28
hamm@@ 28
pigeon 28
acting 28
rolls 28
electri@@ 28
loa@@ 28
tarp 28
cle 28
our 28
rise 28
squats 28
newlywed 28
warming 28
arrow 28
marked 28
surfers 28
seafood 28
treadmill 28
sold 28
ass@@ 28
ume 28
leopard 28
day@@ 28
rafts 28
ight 28
activ@@ 28
happ@@ 28
monitors 28
gage 28
temple 28
rails 28
oil 28
ently 28
attle 28
embra@@ 28
silhouetted 28
open@@ 28
quet 28
reception 28
maid 28
scopes 28
quiet 28
vibrant 28
tains 28
named 28
seating 28
used 28
strings 28
strugg@@ 28
wilderness 28
semi-@@ 28
pops 28
topless 28
sunbathing 28
pict@@ 28
mounted 28
plea@@ 28
tress 28
vau@@ 28
typing 28
licking 28
om 28
striking 28
poodle 28
skydiving 28
medieval 28
nine 28
year 28
pyramid 28
vacuuming 28
sleeves 28
necklaces 28
ordering 28
ght@@ 28
xe 28
competiti@@ 28
check@@ 28
xylophone 28
wrestlers 28
scientist 28
travels 28
speeds 28
sidelines 28
prepared 28
upwards 28
sculptures 28
congre@@ 28
wen 24
gebunden 24
außen 24
reflektier@@ 24
fabri@@ 24
luftball@@ 24
ansammlung 24
ßi@@ 24
weibli@@ 24
stam@@ 24
brä@@ 24
kani@@ 24
prä@@ 24
bst 24
tz 24
watte 24
pickni@@ 24
köpfi@@ 24
ungewöhn@@ 24
stea@@ 24
q 24
rekla@@ 24
visi@@ 24
schlie@@ 24
ings@@ 24
usi@@ 24
ängt 24
gymnasti@@ 24
kopft@@ 24
gerü@@ 24
häl@@ 24
öpfen 24
heit@@ 24
beschä@@ 24
well@@ 24
schirm@@ 24
sold@@ 24
mittl@@ 24
freu@@ 24
hosen@@ 24
web@@ 24
tab@@ 24
mai@@ 24
dunkl@@ 24
gebi@@ 24
ett 24
burger 24
staff@@ 24
gemä@@ 24
größ@@ 24
gebo@@ 24
countr@@ 24
tetes 24
tech@@ 24
farben@@ 24
ehr@@ 24
schmu@@ 24
eit@@ 24
heira@@ 24
orientali@@ 24
ore 24
stel@@ 24
bekann@@ 24
teena@@ 24
rick@@ 24
öh@@ 24
bedi@@ 24
flö@@ 24
stud@@ 24
freil@@ 24
nei@@ 24
gos 24
itet 24
cours 24
iten@@ 24
drag@@ 24
xt 24
elektroni@@ 24
zeu@@ 24
strom@@ 24
irgen@@ 24
stik@@ 24
mpe 24
skop 24
eng@@ 24
schwanz 24
geschnitt@@ 24
schütt@@ 24
tut@@ 24
akkorde@@ 24
zahl@@ 24
alter@@ 24
soa@@ 24
haw@@ 24
rothaari@@ 24
kleideter 24
sprun@@ 24
ong@@ 24
schlo@@ 24
brau@@ 24
halsk@@ 24
poin@@ 24
vertei@@ 24
polizi@@ 24
demon@@ 24
rasen@@ 24
afroameri@@ 24
volk@@ 24
stung 24
bes 24
dy@@ 24
bedru@@ 24
gebung 24
erleu@@ 24
git@@ 24
ket 24
trainings@@ 24
port 24
stun@@ 24
bm@@ 24
wood@@ 24
new@@ 24
öff@@ 24
mets 24
ulptur 24
ef@@ 24
keiten 24
tar@@ 24
wehr@@ 24
tramp@@ 24
mikro@@ 24
zut@@ 24
smi@@ 24
orange@@ 24
balk@@ 24
ländi@@ 24
patri@@ 24
dges 24
erinnen 24
plak@@ 24
mask@@ 24
rosaro@@ 24
scoo@@ 24
cir@@ 24
contain@@ 24
snowboar@@ 24
pers@@ 24
ups 24
trav@@ 24
ath 24
rubs 24
ula 24
botto@@ 24
gon 24
stir@@ 24
heav@@ 24
cular 24
pipes 24
scal@@ 24
tons 24
stretched 24
infla@@ 24
compet@@ 24
night@@ 24
partici@@ 24
ssion@@ 24
recor@@ 24
any 24
cray@@ 24
ep 24
liqu@@ 24
cer 24
ghts 24
sail@@ 24
appe@@ 24
bathro@@ 24
ame 24
micro@@ 24
ribb@@ 24
cade 24
ceremon@@ 24
scope 24
ffy 24
jump@@ 24
inclu@@ 24
complet@@ 24
celebra@@ 24
whe@@ 24
sci@@ 24
horse@@ 24
refer@@ 24
ggles 24
cl@@ 24
weight 24
fashi@@ 24
key 24
near@@ 24
trie@@ 20
schlauch@@ 20
cowbo@@ 20
imbi@@ 20
zierten 20
elf 20
angebo@@ 20
aufga@@ 20
gewi@@ 20
tradition@@ 20
wassermel@@ 20
strick@@ 20
tchen 20
gewin@@ 20
blase 20
bohr@@ 20
haube 20
synch@@ 20
ittel 20
leh@@ 20
bung 20
tropi@@ 20
jeman@@ 20
schlam@@ 20
bot@@ 20
auen 20
bewölk@@ 20
eg@@ 20
cell@@ 20
radre@@ 20
inc@@ 20
spr@@ 20
kell@@ 20
gefä@@ 20
sporth@@ 20
obje@@ 20
garden@@ 20
staubsau@@ 20
dudel@@ 20
trun@@ 20
gewä@@ 20
rän@@ 20
beu@@ 20
strü@@ 20
beoba@@ 20
wagen@@ 20
chtern 20
stisch 20
rads 20
cow@@ 20
lob@@ 20
chts@@ 20
dess@@ 20
ketten@@ 20
selt@@ 20
hre 20
hne 20
tlichen 20
monit@@ 20
gum@@ 20
bogen@@ 20
säu@@ 20
verheira@@ 20
labor@@ 20
ruhi@@ 20
u-bahn@@ 20
schir@@ 20
sän@@ 20
übergewich@@ 20
farbenem 20
stad@@ 20
custo@@ 20
pos@@ 20
dur@@ 20
berei@@ 20
merk@@ 20
met 20
gie@@ 20
porträ@@ 20
ballspieler 20
gebil@@ 20
schach@@ 20
nisse 20
eite 20
ür@@ 20
briti@@ 20
ien@@ 20
dition@@ 20
irokesen@@ 20
crou@@ 20
/ 20
ulti@@ 20
geschmü@@ 20
butter@@ 20
lass@@ 20
akti@@ 20
note@@ 20
neugeboren@@ 20
schub@@ 20
ruder@@ 20
org@@ 20
tell@@ 20
theat@@ 20
balanci@@ 20
uft 20
verteidi@@ 20
ena 20
lok@@ 20
iler 20
hy@@ 20
gepunk@@ 20
rum 20
klei@@ 20
peop@@ 20
schütz@@ 20
bewer@@ 20
tattoo@@ 20
ßen@@ 20
schaften 20
universit@@ 20
ba 20
long@@ 20
oth@@ 20
brow@@ 20
obdachlo@@ 20
phones 20
schwe@@ 20
mod@@ 20
mati@@ 20
op 20
schaufen@@ 20
kimon@@ 20
mpe@@ 20
aga@@ 20
fic 20
twi@@ 20
ness 20
äufer 20
hula-ho@@ 20
jogg@@ 20
school@@ 20
jam@@ 20
wards 20
jewel@@ 20
servi@@ 20
vision 20
cheer@@ 20
watermel@@ 20
ghtly 20
fir@@ 20
mates 20
mirro@@ 20
uring 20
-covered 20
ush 20
iro@@ 20
sculp@@ 20
stret@@ 20
balan@@ 20
ama@@ 20
care@@ 20
shado@@ 20
carri@@ 20
mly 20
cit@@ 20
chain@@ 20
gn 20
rain@@ 20
pedestri@@ 20
ators 20
rail@@ 20
fisher@@ 20
consi@@ 20
lean@@ 20
store@@ 20
surroun@@ 20
ired 20
ctive 20
thro@@ 20
under@@ 20
ored 20
gh 20
grima@@ 20
figh@@ 20
oppon@@ 20
swim@@ 20
middle-@@ 20
vio@@ 20
var@@ 20
ees 20
gam@@ 16
wettbewer@@ 16
hölzer@@ 16
tei@@ 16
übun@@ 16
lege@@ 16
gepark@@ 16
inst 16
ment@@ 16
säug@@ 16
teenager@@ 16
chtung 16
secur@@ 16
bere@@ 16
vin@@ 16
buch@@ 16
ange 16
ym@@ 16
anda 16
terri@@ 16
kaffe@@ 16
pfei@@ 16
lamp@@ 16
anhän@@ 16
tig@@ 16
beach@@ 16
afrikani@@ 16
hobenen 16
kis 16
ump@@ 16
teilneh@@ 16
entrum 16
nier 16
bele@@ 16
fel 16
öffnung 16
ro 16
worfen 16
frisbee-@@ 16
kamer@@ 16
urr@@ 16
famili@@ 16
nung 16
llt 16
walmar@@ 16
entri@@ 16
adi@@ 16
trä@@ 16
x-@@ 16
ü 16
passagi@@ 16
zur@@ 16
geblüm@@ 16
langärmel@@ 16
angezogen@@ 16
marsch@@ 16
arren 16
deten 16
fei@@ 16
klapp@@ 16
letter 16
eignis 16
mmern 16
gebun@@ 16
bandan@@ 16
schnurr@@ 16
bulldo@@ 16
frisbe@@ 16
drahtzaun 16
cour@@ 16
sigen 16
knei@@ 16
niedri@@ 16
schwin@@ 16
gesell@@ 16
hydr@@ 16
fontän@@ 16
drit@@ 16
zw@@ 16
sof@@ 16
prüfen 16
mmert 16
sweste 16
freund@@ 16
kreu@@ 16
magaz@@ 16
angen 16
flag@@ 16
horizon@@ 16
akro@@ 16
ption 16
pfa@@ 16
unbefesti@@ 16
unters@@ 16
tags@@ 16
grund 16
getr@@ 16
saxof@@ 16
ünst@@ 16
schneebedeck@@ 16
sym@@ 16
trin@@ 16
gewöhn@@ 16
shop@@ 16
begeister@@ 16
tou@@ 16
elefan@@ 16
erungen 16
sur 16
motori@@ 16
zenden 16
anwei@@ 16
transport@@ 16
ire 16
mers 16
kreuz@@ 16
mmerung 16
strüm@@ 16
convers@@ 16
einsam@@ 16
quad@@ 16
wassers@@ 16
staub@@ 16
jug@@ 16
ge-@@ 16
trompe@@ 16
rout@@ 16
marin@@ 16
gewän@@ 16
nati@@ 16
perü@@ 16
gung@@ 16
ärmel@@ 16
wart@@ 16
schrift 16
is@@ 16
jum@@ 16
pho@@ 16
schmet@@ 16
@ 16
% 16
portra@@ 16
zü@@ 16
testelle 16
touri@@ 16
kostü@@ 16
ek 16
bucks 16
produ@@ 16
ara@@ 16
mbi@@ 16
beleb@@ 16
jen@@ 16
chine@@ 16
,@@ 16
mobi@@ 16
religi@@ 16
stau@@ 16
att@@ 16
blon@@ 16
leot@@ 16
richter 16
quar@@ 16
fiel@@ 16
pier@@ 16
sy@@ 16
woo@@ 16
badmin@@ 16
enthusi@@ 16
ird 16
sent@@ 16
chop@@ 16
mea@@ 16
ater 16
taining 16
kin 16
parti@@ 16
fig@@ 16
siting 16
comp@@ 16
bbing 16
sni@@ 16
read@@ 16
cause 16
lear@@ 16
contro@@ 16
clean@@ 16
self 16
mounta@@ 16
ssy 16
eting 16
circ@@ 16
pain@@ 16
sculpt@@ 16
guit@@ 16
long-@@ 16
erial 16
spea@@ 16
equip@@ 16
lap@@ 16
teri@@ 16
drop 16
blan@@ 16
daugh@@ 16
compe@@ 16
admi@@ 16
participat@@ 16
tures 16
stair@@ 16
dio 16
dings 16
boul@@ 16
enjo@@ 16
som@@ 16
cau@@ 16
muzz@@ 16
electro@@ 16
swi@@ 16
vy 16
hawk 16
tea@@ 16
peri@@ 16
gymna@@ 16
short-@@ 16
prepar@@ 16
balcon@@ 16
simi@@ 16
separ@@ 16
reklame@@ 12
ttet 12
männ@@ 12
zün@@ 12
mahl@@ 12
gemäl@@ 12
käfi@@ 12
fass@@ 12
kapu@@ 12
schwi@@ 12
heraush@@ 12
pfer 12
trägern 12
mierter 12
fon 12
schäfer@@ 12
fün@@ 12
eben 12
tter@@ 12
synchroni@@ 12
hnen@@ 12
präsen@@ 12
gall@@ 12
feln 12
ston 12
frau@@ 12
reiche 12
gesä@@ 12
steig 12
schut@@ 12
steh@@ 12
namens@@ 12
zau@@ 12
veranstalt@@ 12
bracht 12
zuschau@@ 12
blüm@@ 12
ssiert 12
rik@@ 12
erisch 12
liefer@@ 12
alie 12
bock@@ 12
legestelle 12
galerie 12
fußgängerüber@@ 12
strumpf@@ 12
sonni@@ 12
hälter 12
mäher 12
erwachsen@@ 12
beschäf@@ 12
vortra@@ 12
pulli 12
synchro@@ 12
karu@@ 12
maler@@ 12
é 12
verkaufs@@ 12
sprü@@ 12
gar 12
restauran@@ 12
mün@@ 12
twagen 12
arr@@ 12
ssa@@ 12
vern 12
brocken 12
geldbör@@ 12
cket 12
kei@@ 12
telefonz@@ 12
näch@@ 12
nass@@ 12
mexi@@ 12
lows 12
wasserspren@@ 12
frie@@ 12
dunkelhäuti@@ 12
dün@@ 12
abo@@ 12
ping@@ 12
uta@@ 12
worl@@ 12
vord@@ 12
woll@@ 12
vari@@ 12
anst@@ 12
later@@ 12
shir@@ 12
pizz@@ 12
spren@@ 12
othek 12
snowboard@@ 12
spannt 12
koff@@ 12
zeige 12
ñ@@ 12
ata 12
neopren@@ 12
ussion 12
gewich@@ 12
radrenn@@ 12
sanddün@@ 12
beisam@@ 12
oce@@ 12
zig@@ 12
lil@@ 12
käm@@ 12
mögli@@ 12
pian@@ 12
sonnenunter@@ 12
stüten 12
menten 12
seicht@@ 12
” 12
mierte 12
pic@@ 12
chens 12
räder 12
aufger@@ 12
phon 12
cock@@ 12
geno@@ 12
entlan@@ 12
hür@@ 12
od@@ 12
umarm@@ 12
ens@@ 12
lett 12
ful@@ 12
ington 12
veranst@@ 12
rüstung 12
cand@@ 12
pa 12
anie 12
quarter@@ 12
cue 12
fän@@ 12
gement 12
entfern@@ 12
gewicht 12
é@@ 12
syn@@ 12
gegneri@@ 12
vie 12
paral@@ 12
aro@@ 12
loun@@ 12
jugg@@ 12
unusu@@ 12
pump@@ 12
vacuum@@ 12
mannequ@@ 12
eless 12
ttery 12
asi@@ 12
cation 12
shin@@ 12
cano@@ 12
adul@@ 12
trol@@ 12
onloo@@ 12
spot@@ 12
wrest@@ 12
infan@@ 12
num@@ 12
vement 12
windo@@ 12
label@@ 12
cobb@@ 12
pony@@ 12
tain@@ 12
costum@@ 12
scream@@ 12
fee@@ 12
scu@@ 12
bran@@ 12
backpa@@ 12
cran@@ 12
ciali@@ 12
skinned 12
don 12
neck@@ 12
disc@@ 12
nament 12
door@@ 12
navig@@ 12
scienti@@ 12
vice 12
lad@@ 12
-skinned 12
mock 12
potat@@ 12
arring 12
beauti@@ 12
mp 12
cycle 12
acro@@ 12
fami@@ 12
suspen@@ 12
by@@ 12
ausseh@@ 8
troph@@ 8
gehö@@ 8
wärt@@ 8
bigen 8
arbeiter@@ 8
grä@@ 8
billar@@ 8
sino 8
karo@@ 8
müllton@@ 8
maschen@@ 8
reflekti@@ 8
einkaufsz@@ 8
zist 8
strin@@ 8
gewäss@@ 8
allen@@ 8
la-@@ 8
or-@@ 8
bür@@ 8
mpf@@ 8
drahtz@@ 8
pfel 8
zogen@@ 8
hals@@ 8
litt@@ 8
stamme@@ 8
gür@@ 8
leich@@ 8
schauf@@ 8
rah@@ 8
ele 8
ppies 8
schriften 8
gebildet 8
tax@@ 8
graff@@ 8
richt@@ 8
itt 8
schlit@@ 8
u-@@ 8
silhou@@ 8
trei@@ 8
moto@@ 8
masch@@ 8
sklei@@ 8
’ 8
zeremon@@ 8
board@@ 8
exer@@ 8
audi@@ 8
tour@@ 8
monopol@@ 8
schoko@@ 8
tribün@@ 8
rollersk@@ 8
rasse 8
srichter 8
ima@@ 8
gem@@ 8
eth@@ 8
sammlung 8
emand 8
manö@@ 8
felsvor@@ 8
oba@@ 8
brünet@@ 8
stert 8
schmut@@ 8
motocross@@ 8
emon@@ 8
brett@@ 8
gebau@@ 8
deo 8
marath@@ 8
läu@@ 8
verschne@@ 8
seli@@ 8
aufgerei@@ 8
agen 8
vis@@ 8
klassen@@ 8
mmer@@ 8
swesten 8
amerikani@@ 8
orn@@ 8
demonstr@@ 8
pullo@@ 8
‘ 8
führ@@ 8
mern 8
bede@@ 8
boo 8
bong@@ 8
gner 8
ttert 8
stin@@ 8
rand@@ 8
zogen 8
xylo@@ 8
ever@@ 8
steiger 8
tos 8
sell@@ 8
lein@@ 8
mach 8
jog@@ 8
versu@@ 8
muse@@ 8
konzentri@@ 8
digkeit 8
dekora@@ 8
sentation 8
eht 8
gehü@@ 8
mcdonal@@ 8
flüssig@@ 8
ters@@ 8
pflaster@@ 8
schnüff@@ 8
ause 8
gerer 8
enti@@ 8
währen@@ 8
berü@@ 8
undert 8
papi@@ 8
anz 8
gir@@ 8
meiß@@ 8
7@@ 8
drin@@ 8
beweg@@ 8
bewe@@ 8
smar@@ 8
gepflaster@@ 8
bou@@ 8
ffee 8
kunstwer@@ 8
nea@@ 8
versamm@@ 8
kehr@@ 8
oph@@ 8
entspan@@ 8
torhü@@ 8
bün@@ 8
mc@@ 8
symbo@@ 8
fitne@@ 8
thi@@ 8
beut@@ 8
harmoni@@ 8
vri@@ 8
posi@@ 8
donal@@ 8
ssi 8
bill@@ 8
ympi@@ 8
togra@@ 8
hill@@ 8
approa@@ 8
camer@@ 8
ners 8
neigh@@ 8
wai@@ 8
class@@ 8
possi@@ 8
hug@@ 8
moun@@ 8
sle 8
wash@@ 8
cture 8
pajam@@ 8
swee@@ 8
lly 8
secon@@ 8
beau@@ 8
presen@@ 8
brides@@ 8
ander 8
cil 8
stuff@@ 8
xing 8
irts 8
bott@@ 8
scaffol@@ 8
sely 8
swin@@ 8
blue@@ 8
kets 8
acrobati@@ 8
tty 8
close@@ 8
two@@ 8
hout 8
repair@@ 8
ried 8
graffit@@ 8
paper@@ 8
roof@@ 8
buff@@ 8
shoul@@ 8
blea@@ 8
cers 8
veral 8
outf@@ 8
even@@ 8
born 8
shaw@@ 8
invol@@ 8
classi@@ 8
ental 8
urs 8
blond-@@ 8
letes 8
chur@@ 8
` 8
dread@@ 8
rench 8
hard@@ 8
ples 8
scen@@ 8
ssig@@ 8
xy@@ 8
mir@@ 8
entran@@ 8
puzz@@ 8
tial 8
locks 8
sidel@@ 8
scul@@ 8
cele@@ 8
partment 8
escal@@ 8
fini@@ 8
ulen 4
platt@@ 4
höl@@ 4
vorbe@@ 4
ca-@@ 4
ligi@@ 4
hub@@ 4
schlen@@ 4
aufblas@@ 4
ilen 4
weih@@ 4
herau@@ 4
unord@@ 4
untersu@@ 4
fotografi@@ 4
pflo@@ 4
amü@@ 4
kastan@@ 4
lapt@@ 4
auran@@ 4
individu@@ 4
_ 4
comput@@ 4
bäl@@ 4
kajak@@ 4
schacht@@ 4
unte@@ 4
pull@@ 4
män@@ 4
aquari@@ 4
bekan@@ 4
unordent@@ 4
eiscre@@ 4
aku@@ 4
glied 4
bewal@@ 4
pfü@@ 4
perspektive 4
verwir@@ 4
fläch@@ 4
jewe@@ 4
vergnü@@ 4
unice@@ 4
überda@@ 4
agi@@ 4
utieren 4
eys 4
kab@@ 4
gestiku@@ 4
konstruk@@ 4
auss@@ 4
ehmen 4
dau@@ 4
lade@@ 4
old@@ 4
legg@@ 4
ih@@ 4
auft 4
kaja@@ 4
struk@@ 4
zäunten 4
erseite 4
zylin@@ 4
militä@@ 4
ehr 4
gestreif@@ 4
handwer@@ 4
frieden@@ 4
elek@@ 4
köpfiger 4
gepf@@ 4
akustik@@ 4
tender 4
läch@@ 4
hula-hoop-@@ 4
blas@@ 4
dium 4
benut@@ 4
scheinlich 4
barfü@@ 4
gepä@@ 4
skap@@ 4
schwar@@ 4
brand@@ 4
älter@@ 4
betra@@ 4
schwa@@ 4
äht 4
kleidet 4
rosti@@ 4
smart@@ 4
repar@@ 4
pär@@ 4
riksch@@ 4
deco@@ 4
geschä@@ 4
mül@@ 4
arre 4
mpft 4
marschi@@ 4
schl@@ 4
gesti@@ 4
hula-@@ 4
froren@@ 4
häuti@@ 4
automat@@ 4
lichkeit 4
neben@@ 4
sungen 4
mals 4
leimer 4
achter@@ 4
geflo@@ 4
gestrei@@ 4
orient@@ 4
üb@@ 4
öser 4
asiati@@ 4
pierc@@ 4
füllten 4
verschie@@ 4
selbe 4
amer@@ 4
burg@@ 4
caf@@ 4
öhn@@ 4
bör@@ 4
hom@@ 4
è@@ 4
à 4
runn@@ 4
yar@@ 4
zurü@@ 4
erzeug@@ 4
schied@@ 4
bad@@ 4
cany@@ 4
bab@@ 4
karre 4
äumen 4
heraushän@@ 4
stromschn@@ 4
volley@@ 4
strau@@ 4
samm@@ 4
jugend@@ 4
bchen 4
dt 4
uniform@@ 4
rying 4
irt 4
cident 4
guitar@@ 4
footed 4
af@@ 4
stures 4
ssell 4
gical 4
clou@@ 4
stening 4
wel 4
treadmi@@ 4
tting 4
contra@@ 4
mur@@ 4
stab@@ 4
&apos;@@ 4
suring 4
flau@@ 4
chal@@ 4
attemp@@ 4
bies 4
tooth@@ 4
silhouet@@ 4
bal 4
pig@@ 4
towar@@ 4
quo@@ 4
accor@@ 4
gue 4
publi@@ 4
indu@@ 4
sax@@ 4
usk 4
aband@@ 4
laugh@@ 4
thum@@ 4
gul@@ 4
yho@@ 4
bora@@ 4
squee@@ 4
ree 4
fted 4
perform@@ 4
practi@@ 4
bed@@ 4
shal@@ 4
lared 4
snea@@ 4
cated 4
sque@@ 4
py@@ 4
flops 4
q@@ 4
numer@@ 4
fac@@ 4
milit@@ 4
hospit@@ 4
shirt@@ 4
performan@@ 4
shepher@@ 4
borne 4
dump@@ 4
pod 4
ban 4
spark 4
bene@@ 4
gray@@ 4
ricksha@@ 4
after@@ 4
foli@@ 4
adju@@ 4
brown@@ 4
dent 4
bub@@ 4
concre@@ 4
police@@ 4
$ 4
brun@@ 4
rested 4
repa@@ 4
traf@@ 4
cauc@@ 4
amo@@ 4
tory 4
ory 4
checker@@ 4
dest 4
vibran@@ 4
establi@@ 4
shment 4
climb@@ 4
chalk@@ 4
wheelbar@@ 4
track@@ 4
tently 4
race@@ 4
pating 4
za 4
outfiel@@ 4
-american 4
vel 4
differ@@ 4
rece@@ 4
ssor 4
elect@@ 4
inju@@ 4
obsta@@ 4
conc@@ 4
ow 4
cham@@ 4
= 4
